katree
ingen
purple
consult
friday
tavern
bush
##agny
mit
##uber
jeremy
hound
##quate
byron
tex
##acon
grimaude
chick
terrific
staff
##net
brisk
artist
mosc
effy
kala
craft
##isco
##ive
##ray
##igger
myster
##asion
##ja
flah
terrace
##onymous
##ians
cemetery
abraham
grid
policemen
##ool
reginald
##rease
console
##agic
toast
lis
##yn
brook
morta
##llow
kai
##oke
hornblossom
engine
treaty
senn
rep
site
ek
##con
##heard
ransom
##oshan
##ice
biowarrior
##nel
sharian
wax
agency
##auss
##ldom
narmer
bandana
mix
ther
refle
ribbon
iran
##hol
swore
student
braun
##rought
sple
felix
wicked
dantes
shed
georg
barb
fritz
thieves
cafeteria
ner
suite
reco
bonus
slept
scot
murderous
deck
##nday
itll
corp
prone
whoa
machine
nahum
ferry
jealousy
ref
fantasy
yield
coffee
##wan
cafet
board
jug
brave
furniture
##out
prime
kent
draft
coron
marcell
jasper
##itas
rag
mademo
riki
##ss
moyo
again
logan
toy
##rous
guess
##cs
matt
stare
carolyn
apart
le
triple
neighborhood
kinsley
friend
##rough
pleasant
benefit
##ousse
drug
ange
##atory
##rol
ceremony
##uster
sofia
##jee
motor
##war
telen
infamous
does
scott
pred
fort
extensive
velve
##aska
phen
iphone
##lda
60
dile
vas
fol
aisle
odjo
reids
several
##thys
surreal
##vive
legion
done
##ford
feraun
##asha
body
frigid
casual
inscription
##ca
religion
ev
organic
fredrick
billys
cass
visit
##ciate
beppe
clear
hut
sour
albert
request
green
vehicle
authority
pigafetta
##hend
brought
mel
dc
moron
##ane
assume
##go
spit
amidst
seal
mild
charm
parallel
interfere
##eague
range
ursula
babe
##aining
repe
##ther
stryk
bearl
insistent
desstina
ete
assist
##rade
mandayala
##ilt
athys
toll
##ought
martir
attempt
heel
kaplansky
bosun
##olation
leg
radio
gorge
bish
##aste
flesh
ziora
celia
chateau
##viet
##they
thorn
valir
answer
##ha
##pa
gue
hilda
during
##onel
uther
spin
##dain
platinum
##oma
roar
##alo
kaig
mid
low
cir
mass
pot
gon
magic
phil
appre
chaytan
deputy
hay
christian
kettle
webster
xin
waterford
hermalk
##olk
spot
cause
adversary
tahn
##and
former
custom
##pent
question
clung
jere
minotaur
obl
shade
marvell
quantity
have
jen
gas
##change
$
spectacular
##lans
fal
vaquero
dist
favor
tend
wouldve
warui
secondary
fraction
sharpe
asmar
pastor
beer
pitch
plaus
annoy
plain
litter
arabic
gi
copy
zalie
##tto
##ier
infinite
gl
ent
tra
long
##aw
slide
arthur
encourage
medallion
##oud
phot
sequence
turkey
rural
##nor
heard
prophec
##rase
coven
clasp
abandon
##amp
write
##ve
##ide
cottage
recoil
##w
##wa
invite
##esp
gordos
vicente
deed
portable
bob
##ris
comrade
ishmael
fabulous
##imal
gabe
##mar
stre
bunker
abb
##istine
gabriel
hazel
##ri
ult
recon
wilderness
res
carriage
junior
transp
pee
mood
alike
silhouette
vomit
##ough
fault
lie
mad
tour
sarc
##action
hell
##les
disgust
discre
hai
side
##ike
##utch
wrath
spir
hartman
lind
vinc
aim
scout
##reek
butter
fair
heat
##irm
##oint
shawna
improve
don
lor
^
##ombie
scrape
brie
kitchen
tanem
assail
wom
##avel
solo
##ye
summer
moond
magellan
mas
banelyn
##eez
hotel
kovat
jean
##ee
cons
eliminate
depository
israeli
manhat
##te
elephant
##rel
ryan
century
he
##omb
tradition
customer
tid
water
c
case
russian
##acle
interview
clatter
speech
##otaur
shook
connect
parade
stoop
winter
avenue
radiant
##ias
johnnys
charles
##ulture
governor
##aph
millennia
april
brilliant
fiber
slit
ammunition
slight
drew
chim
sur
sult
skirt
##smen
##verty
can
brogan
##gg
fridge
cargo
memor
burg
##iet
horrific
d
oz
##ment
marina
atal
chance
##ru
animal
world
snort
pegasus
assumption
chupacabra
strung
lonnie
fir
reich
june
rig
yet
connie
##ys
alco
evident
mightve
nerza
rum
earl
##k
jam
~
hangar
pan
tecuhltli
catal
##illy
woven
ce
atlantic
gust
frankie
tai
key
##rogen
follow
inter
lip
great
coach
warm
phase
tro
##un
##ords
spr
##t
fog
##men
ut
vac
golf
robes
##rat
vaqueros
eryk
##bor
stephanie
##tar
por
##inder
stack
crane
roman
pun
resist
villene
hall
brief
##alt
sunday
##our
##ib
illino
moust
force
santino
tatt
rug
pup
ino
must
conspiracy
rather
fin
jap
##ilogue
fragile
##ah
##ndy
musket
chimney
especially
fuel
voc
leisure
ally
obey
hus
ramn
##dy
gordon
##ondorf
king
hipp
around
##ore
##iff
circum
drift
likat
harvest
entertain
##cy
earth
nerve
##alk
mile
mouse
michelle
scowl
persu
nigel
htt
giggle
book
cro
yin
quiver
varv
irr
seika
##aber
shut
##allel
think
stam
freder
sigh
##rative
speed
sink
rid
rule
many
unison
mall
sutton
##ag
direct
legit
sub
plastic
squeeze
##cular
pistoles
perform
heed
feminine
##ita
ravine
vacuum
abbess
har
wang
##ouch
##kin
beast
stove
overt
##ysis
consist
dunno
gasp
expense
##igation
ignor
crytore
bliss
hern
motive
ohara
passage
vines
roy
foot
##wood
thatch
bod
remark
subtile
element
desolate
##are
##cuss
rema
jealous
lance
os
pair
gorman
darn
froze
limo
dope
##leans
section
bulays
##ink
##erable
yosh
##hall
poverty
chasm
lung
levant
alakar
battling
belenus
meadow
##ress
russell
skys
warren
preserve
ideal
plate
bl
notion
##atu
physician
##ake
enig
borne
voll
torment
sis
hir
familiar
nelson
exit
##vey
fray
andrews
lawrence
##uhltli
feast
rafes
quar
telenian
maxim
ens
shrug
fau
greet
opinion
maurice
communicate
vain
op
##acular
fo
thieve
similar
1963
establish
zone
landscape
impro
blonde
guarant
fiction
atticus
treason
mercen
##ki
rump
sir
victoria
exquisite
expose
tragic
eu
meet
entity
##ork
##inate
utter
##arico
##ict
afghan
##uffle
##30
nash
creature
mexican
napoleon
tab
##allenge
##isc
safe
##eg
void
bryce
gretch
richards
ny
rhythmic
##hearn
##sand
carbon
chron
supp
yoshi
lock
paan
assess
##mell
chapter
crompt
-
lust
##breaker
laurence
roll
feel
row
rat
incline
phenomenon
nikol
rough
box
lum
passion
kay
jophie
##enty
splendid
ramp
##h
##cery
shack
should
dim
tares
##ade
mule
##ompt
chate
smith
complexion
enthusiasm
job
tunic
feather
seamen
harald
molten
acc
zinzabad
god
village
michael
afford
layla
fift
hellenistic
ruin
97
atte
##ume
lent
##gant
jonathon
##edral
2
##aun
##oe
wow
swam
hood
vivid
bass
stad
asian
ford
ordinary
mari
anyways
coll
tongue
##idual
gabes
royal
##inth
mcc
hollow
ot
adams
doctor
mutans
obs
##ayl
candace
agripp
industrial
##art
spent
conf
##press
corporate
exchange
phoenix
process
##sie
spider
##ready
mitch
lane
##gal
##ave
belong
hamm
gal
rept
game
br
arizona
##end
victor
##mon
kick
prize
##fort
witch
spl
rab
demo
death
swenson
moment
card
menu
boud
thumb
extent
jacket
groin
fragrance
##nate
halsey
##ench
hostel
julio
dwarf
happen
branch
lero
som
##tha
adam
code
brus
vl
canopy
dizzy
town
nic
##ai
##hr
idol
merchant
comp
lodge
wasnt
##enger
jonny
dozen
uh
500
enapay
spo
bicycle
frame
treville
weed
assistance
angelique
##iana
dro
sa
rose
slave
vicar
nab
##ige
aryball
##rection
##ince
chine
gaunt
##umber
##ett
scale
gwendolyn
translate
promotion
wrought
sok
##as
north
prepare
viet
than
linda
philips
vest
##uckle
cozy
tre
marine
erlan
leav
anne
gait
##ce
sfax
big
##ros
yellow
vessel
torture
ital
kens
##inge
carlos
shelves
mendo
maxwell
support
depos
elm
lycanth
##osc
jimm
top
border
##lee
##wick
study
every
robot
##olent
itd
access
uniform
##issa
##ke
risk
concert
very
capacity
##iss
scotland
drewbell
shift
senor
obsess
rhy
ditch
##reh
cheza
our
breach
##drich
humanity
##rot
v
00
knock
tyrone
##ey
sat
single
abs
breast
/
administration
precious
##ndar
stamp
ardith
%
bersamon
nam
sab
cig
nige
##lish
hy
werewolves
##walk
spect
theodosia
language
reasonable
theme
loyal
##ramid
work
probab
par
##ank
begun
christy
fee
##ick
dur
gro
##lf
##ain
##us
##ium
illum
essence
clyde
raseed
##zk
scarburg
harvey
absent
##ius
begin
##al
dav
some
focusing
##well
swing
string
##anor
announce
ste
comfort
##ingham
companion
those
kid
sal
bonacieux
##ordan
subst
##ulate
lethal
alleg
scalp
##el
phillips
yang
population
##ographic
missile
west
ha
##not
emphasis
japan
alpha
fortune
hash
pride
bot
##e
dagger
blue
appoint
##vers
ski
##ftrack
podium
minimum
medium
extract
lia
quantum
pork
##aki
##ish
plantag
recess
cellar
##erson
descent
##na
trousers
pho
substantial
together
21
manday
lake
fash
academy
european
courier
##mble
destiny
astor
wo
interf
wardrobe
vegetable
mus
impress
neither
##itory
##esy
ariz
fuse
importance
busted
sword
dealt
##icycle
patience
whendy
build
##plic
##abul
plea
hyper
tempor
dervish
grig
##ly
cave
rain
immortal
laur
mam
edie
ring
verify
##ola
columb
ard
cen
witchkin
##ili
##unce
slumber
ghost
##ball
##entic
##lu
suff
significance
##lar
vig
hornblo
cheap
inner
approach
chichilia
##cony
rele
architecture
dude
legal
teleport
republic
meg
plump
mi6
plane
compar
terrible
period
israel
baggage
crisp
sign
sampson
neat
ale
ample
native
mah
300
##iente
##irl
candle
haz
depart
mexicans
[PAD]
instrument
##side
pede
prissis
##ular
##he
cred
intend
##shold
auto
vom
scr
nva
curn
collar
mob
swept
jul
drive
mention
beard
cane
bour
buggy
con
region
sensitive
whenever
laughter
zva
occur
infantry
shoot
##weg
crey
scenario
##sion
hammer
traitor
arkham
ur
throw
tennessee
appro
want
##iny
jhov
forthcom
shone
##ini
##amon
perception
greg
dv
wolfe
superst
idle
##bon
##lom
raph
clair
asen
melt
urie
transmission
##rable
propose
confederate
special
hodge
widow
avery
##rick
reverse
ana
sugar
natives
federal
bind
hermalkin
blush
sched
##ira
##lson
unit
##utenant
##oire
advise
rit
precision
mama
convent
##enton
electron
yan
##asive
stadium
##ited
##quent
impatient
hoof
|
imaginary
specific
drip
spe
thirteen
iv
yard
adjust
immediate
pri
sant
arctic
ts
nikolai
disg
##urs
##bble
threshold
miniature
##ile
##bard
noble
##bb
bailey
bellow
##arez
able
ulf
lisa
worn
allan
bren
july
track
##chester
aluminum
fizz
##ric
##ipse
face
pas
ricky
flood
competition
lan
enemys
jag
finn
crab
##law
pier
gloom
##ious
##ividual
destruction
partial
nu
crush
understand
destro
danny
decision
cant
dull
demeanor
jamies
##nesday
greek
ferocity
kal
corn
negotiate
serious
at
toss
terra
fought
mod
limp
appl
temporary
cauldron
pleasure
bu
##gent
rebec
drama
war
##rawn
fend
joph
carval
earnest
##name
ex
heck
incredible
solom
afric
alc
result
went
ix
maple
bother
grew
##ician
7
sack
angry
gavin
mr
##ver
##ification
launch
jeep
sincere
umbrella
move
##cient
contin
oppos
elf
##iii
nith
denise
bravo
assembly
den
imperial
sinister
lim
rak
basket
involve
goble
##d
typical
mediterranean
camden
##ld
dent
priest
valerie
##nant
prayer
extend
poss
##ct
sen
motion
research
ul
##mont
corrid
half
armor
matts
##mos
awhile
padre
##unge
race
sire
colt
touch
nesu
##elisk
altar
sultan
futile
gypsy
rodgers
crimson
##idable
simple
##akon
##ent
arielle
evac
mech
glow
pupp
myth
pursue
##lusive
slack
scare
doc
bryn
fath
plum
##und
beige
tula
honey
learn
##lis
test
shoe
stephan
14
##peration
odd
philip
urs
flame
##phem
taste
##por
foliage
hush
lz
brend
ouch
surge
underne
callbeck
sore
wulfstan
denton
tiffa
##ven
behaviour
##iona
impenet
##ipper
ponder
possession
katana
jason
diss
fore
slain
ber
bud
adult
##cha
budge
du
position
swan
trepid
skilled
##ousine
boone
jackys
calf
venom
sali
pit
kae
##iano
nich
spade
a
##att
vietnam
edge
sh
creep
##arge
##uck
ernest
merrod
scenery
disdain
##uard
aut
##ourage
doubt
conspir
##apt
leash
lon
neils
stem
use
viv
goodspeed
rice
mickey
furn
nahumik
nod
veronique
ought
asteroid
##blo
2013
vel
geph
##m
razz
##iable
sarcastic
horn
flicker
proceed
##erce
climb
sergeant
diplomat
exper
##din
freeze
##0s
wind
##chel
cover
age
tim
ext
annie
hann
abundance
from
dawkins
rigby
lucifer
diane
raw
ridge
lion
##vis
vir
wheat
##nut
twitter
mammoth
##ert
claus
sarge
dem
bruise
solemn
34
when
hmmm
castle
gre
effect
##ird
##verse
ultra
cha
compens
loaf
##ould
##strate
burst
apparent
tact
##quer
vitale
##v
##uss
rosa
##couver
abd
grade
ac
eternal
un
citizen
shel
tia
behavior
argus
yes
paddock
legend
blow
hollywood
exc
sammy
frenzy
salaz
jefferson
##uce
stella
entire
appreh
ip
##rou
ket
draw
chatter
##ahn
suit
wrist
mis
threat
horrible
jurgen
##acity
seor
freak
##aylor
cure
video
ins
##ieve
ted
diet
battery
anatole
acade
bloodmage
estob
rubbish
niran
sling
milord
dress
chef
poop
ang
mediter
scab
scen
mur
penser
hike
##phy
quiet
session
3
kendrils
inno
milburn
roger
rip
##ays
nuclear
leofric
samm
taxi
swim
collection
nexus
multi
##ikt
zepar
police
heaven
##ten
ly
##kins
##ior
valver
##avn
finger
paddle
miami
!
fund
adequate
parad
adoulla
lin
stumble
roulibard
punch
squeal
##xt
thief
trace
juliet
boil
##aud
##enas
sorry
internet
##ro
8
release
aram
relative
me
might
##asy
prove
##ibility
blind
emil
##ahan
korean
andy
source
anch
has
sera
chant
familys
haunches
succession
became
##assy
##leton
egypt
triang
##chief
across
logic
aimee
pie
gan
##rella
capt
spook
prog
oper
ine
fuchs
spread
cartag
honor
##pri
leblanc
neil
##ow
empire
esther
suppose
##stan
bener
wheelan
##oles
francisco
pajamas
inferno
##old
##ats
zap
##ogany
switch
dee
##bre
##ortal
nir
##ject
##inct
esmond
san
grunt
##entle
fitted
noon
##ked
won
aver
elkano
abu
raymee
conscience
##ombies
sidney
s
aroma
sy
bangkok
thorough
hopping
mp
plan
ray
raul
55
n
turbul
##que
prophet
sense
carc
38
noose
chug
greece
vala
mattress
high
##her
seventeen
drake
cate
edition
zelinite
far
cellphone
gash
##uliar
nar
##ud
13
eb
elena
partic
sebast
##rose
##ipher
current
##imony
pig
rupert
irene
teen
##ital
eight
bread
tate
screech
##olt
olewan
spectacle
attendance
whisper
sch
##oy
tarmac
##ards
owe
horde
square
##ico
margaret
##9
jill
tower
wallet
pete
bandage
reflex
possibility
##stem
inform
wre
filippi
wave
cher
arrogant
seventh
saloon
new
anglo
caligula
burden
##zzy
viol
custody
imagination
nine
clerk
ax
determine
vallin
##ins
thus
##udge
vaqu
lackey
explo
arc
jelly
awe
surveillance
kee
##quire
kial
gambit
shrill
##ot
##issance
granite
radius
##dad
id
##itate
hearth
wes
##erence
ack
cree
ben
cem
##oda
blade
depend
arab
ahead
satisfaction
##ere
##etic
##ribute
aqu
wing
habit
##ency
##anese
##lict
nath
hard
dawn
##lor
proof
sane
##orescent
item
harp
pattern
rad
got
aye
##ea
kor
week
laird
worst
##gre
rhythm
neut
loc
fuss
need
convey
quarrington
skill
##ry
massive
made
country
intellig
##iac
soon
nah
juana
kam
clark
prominent
scrap
remember
brim
devoid
##ab
reliable
##iency
##ect
soap
deme
##iser
inside
##izar
astralis
rear
##thin
vulcan
idea
start
##astic
cou
spat
##ka
abrupt
manaea
##sequent
jewel
##ay
command
trigger
january
kayl
self
rigid
ocean
develop
vella
cly
curious
bought
##jamas
mahogany
dramatic
valer
kiss
mujade
##namon
bloke
##avity
message
confront
congregation
therefore
crou
##oof
nanzy
knit
arena
lush
buzzard
dutch
gain
sylah
pou
bled
none
etern
##mad
graduation
texas
condition
function
creek
conn
ned
illusion
##ama
whose
##manent
##ual
cube
swear
turn
##iber
collapse
contrary
inconven
check
verse
hope
##quest
##resent
##actor
##isk
tumble
huge
tore
##uch
oxy
sensible
concentrate
reach
mcteague
curb
emblem
##ror
ed
heritage
oak
dup
built
damn
favorite
caval
##ensible
club
say
##3
##nal
sim
gu
pound
fathom
stain
hour
kyiv
y
bride
swallow
consistent
##ither
r
##avier
locke
spoke
##ardon
vantage
ledge
extra
mice
feed
muse
shr
##quet
savvy
des
stool
kir
tube
life
vast
busy
##fle
dear
cous
bella
mem
##ble
puff
##ysse
porter
herb
desst
leave
##aron
##anoid
pic
meyer
cin
balance
inquiry
traff
meekas
noise
bloom
dorm
beacon
recent
would
pole
artifact
##ura
beg
flush
##aul
restrain
adolfo
buddy
lyndon
bed
crate
##nda
assemb
17
&
concent
interse
##erent
fate
##ssible
conj
arg
rifle
reme
##down
curren
##scent
ren
blew
hud
##athon
dismay
##uan
silhou
absolute
tong
##uj
##lder
tascela
norweg
last
ele
cliff
##vert
haakon
##ibe
keravel
halftrack
##eria
mac
complaint
##az
ox
##illa
whether
few
recognize
kitch
weep
john
##og
##asm
public
davydd
kirt
ellsworth
##igne
jewish
sapp
moder
##iles
rey
hind
badel
##long
quaint
pau
karen
hebrew
loft
roof
admire
alb
##ylon
floor
bizar
spec
##bury
rachael
canaris
turkish
##ano
tori
##ub
ireland
##for
topsy
joh
##acco
cancer
aries
declare
spoil
##awk
americas
mm
##ility
nope
##mo
day
tow
month
100
##quis
brandon
##rich
##ougal
badelgard
reckon
hq
exhib
##kee
##icult
frontier
20
society
##aze
pomp
rival
permit
feder
eva
dum
foul
##ged
##ippi
spirit
odys
flank
surround
alexa
g
##cil
western
breeze
rapid
hines
##nge
scarlet
##los
luxur
seed
chaim
psych
aura
##moth
fern
folly
jacobs
hatch
##ead
##luence
crim
cabin
tyr
admiration
monk
recru
doom
fluid
view
juarez
##aster
recommend
antenna
sneak
gag
import
latter
##ontal
char
struggle
sufficient
##lamation
entourage
comprom
love
drag
person
vital
##arn
rust
talk
##mec
nsa
knew
##ge
disp
sw
still
meant
legacy
##igg
apology
army
zep
technique
stubborn
surprise
circular
cheese
vein
wand
##vir
disple
strap
##zie
where
##ika
violence
##ess
theodos
electronics
tax
##eres
lila
hurricane
incoming
es
martial
##olic
humour
lead
##ila
cavern
lesade
##ipate
ver
afellay
##ost
lean
##ana
lachey
##cano
split
travel
conference
vertical
##utton
derrotero
moog
cuban
cler
us
##erie
oblivious
bog
until
clarity
they
##iselle
assemble
step
storm
digital
kil
auth
sad
mariss
nev
##iend
sher
raymonde
der
reflection
indians
slip
scientist
production
dway
##iang
season
##vish
tit
merri
culture
choice
##lla
acrid
chunk
asp
creator
mark
jung
sentinel
universal
chich
##on
resp
swiss
##anaka
require
deception
##uela
choy
cross
nause
##ez
enthusi
##pan
##os
sought
fish
less
now
hailey
virg
frenchman
withd
saus
##eel
moroc
dash
objective
procedure
clint
xander
sacrif
portugal
##ren
tarzyn
##oh
lyn
breydens
ad
alexis
dw
noir
brandy
same
opposite
graph
party
ob
base
k
ta
to
##izz
suv
nottia
##tur
ramona
large
thir
elkan
courtesy
jamie
date
juice
generous
neptune
tank
inquis
taraska
deep
##erve
maratova
rattle
##log
##roc
so
anxiety
repeat
thump
islam
surgery
rapha
lycan
ariis
limit
##orce
both
plank
syd
rod
average
##fist
fredericks
joseph
qual
##ndred
##istics
defensive
interruption
natasha
##akosh
patrick
oven
tamy
##iph
decide
prof
thered
coe
picked
ammun
chaos
##s
retire
##idence
yawn
passenger
##ate
pen
six
rashi
bathe
intim
##esday
meter
##uction
wide
hence
hedge
crap
##leen
##rica
hold
bark
surrender
despair
cameron
##yal
##arse
independent
hun
brutal
burial
##epend
sit
len
pear
riot
osiris
serpent
##mber
##mor
##inion
mistress
gord
compound
slap
we
piece
simpson
sc
stick
menace
sovere
apartment
spine
##shift
wel
sleek
trauma
manip
sorcer
by
palm
##f
##iver
centaur
steiner
sle
##itu
##the
myri
lexel
gulp
furion
innocent
##aken
extern
##olm
neela
rebel
form
manhattan
exped
##azine
gentle
attitude
virgin
stil
alita
hiss
shuji
##ucture
reputation
psy
##st
found
##bo
div
ba
bor
feeble
si
shad
nasa
jennings
mat
consc
sphere
lys
##ville
##bie
ryu
dow
##ie
palace
dwell
muster
##aris
##ip
band
##eech
nik
conven
tune
##iest
powder
hank
revenge
liam
ast
##6
physical
main
ran
manny
##si
cove
greed
##irrel
vanish
wail
deposit
##roy
clandestine
cafe
ahmad
##gue
easy
##n
rese
bowl
brut
##awl
cue
reverence
style
web
jail
[
why
combat
merc
cramer
thatll
africa
##oir
scaliz
oct
bamb
agent
##hrer
citys
snack
##nder
bite
cole
##cott
##eep
shall
laden
hypnot
viz
nav
anwar
##vell
toe
lj
denue
bald
lass
woke
conway
french
ow
whiff
them
jump
explos
##av
knuckle
alas
til
##bean
identity
minute
kill
##gas
##an
fi
sacred
inh
biosynth
##iv
pirate
##asure
del
refuse
osw
cit
heydrich
intel
budget
rever
sept
outcropping
porthys
##mal
jes
coplawyer
inevitable
economic
gleam
aunt
##mend
##ra
##oosh
##eer
drone
pure
gunnar
melody
pavilion
expedition
l
##ination
##burn
fed
mercedes
##iposa
frequent
##thal
exhaust
one
kiel
rent
stew
chezas
##acabra
ble
stroke
clap
hylian
dang
##ase
scent
horse
false
##ature
poison
git
actual
mystery
infection
##red
turks
guy
haletons
##elich
domestic
##ne
delic
##ago
resume
lew
mach
nice
xiona
##ex
complete
##gon
belt
claw
swamp
slate
sic
altitude
rajah
thing
##avy
sum
parent
robin
bet
tee
##uk
##anda
kh
##ries
inquisitive
##mp
ups
obstacle
authentic
enorm
18
gig
##aus
##g
brynn
needle
sniff
shower
escort
pass
rectangular
##acent
fantastic
relieve
veritable
fax
civilian
jersey
det
snow
oval
down
eminence
kole
`
##atter
past
vesp
wry
die
festival
intelligence
##ceed
anubis
commandant
wreck
stab
aid
celeste
necessary
kins
tunnel
reflect
rumor
piano
couple
pony
remove
offer
lifting
that
##bi
spill
yah
agne
##mpl
harve
##pping
flag
bios
biowarriors
##ik
se
journal
line
proph
roch
original
eur
feet
##ves
##af
crest
jenkins
chair
good
##een
ganondorf
##key
senator
destination
platform
wara
meat
##roud
mon
valley
destr
comprehend
estab
christians
yort
part
weather
##agan
amongst
wipe
##x
tribe
bug
co
##anton
callum
frank
evil
##ssom
regard
arm
taylor
mayor
peri
abrahamster
saxenburg
organ
##alie
egg
##ify
##lav
suvan
chezare
steed
disappoint
##ason
##zan
word
efficiency
tell
##enade
##aly
maid
##oufl
winged
athena
arnold
nur
mush
shouldnt
##owl
tray
whole
jaz
godard
alfred
garb
raft
magist
##yo
catch
prevent
pearl
salary
##ises
bert
mafia
##eed
stream
sure
##ood
battle
clau
ambul
cyl
led
italy
dresser
##allow
restaur
candidate
booth
implant
abdomen
##row
rare
bec
aff
##app
transition
recom
columbus
sananda
##atonic
clancy
asset
##iture
johnson
kennedy
num
exerc
##cept
hull
##ival
prod
twist
august
appet
bike
expans
liqu
##mission
judge
belief
##ottom
##nes
orbit
larissa
glint
impact
##orm
raleigh
##sl
cartagena
turmoil
mercenary
manuel
wonder
affair
harmony
jade
canad
##bodys
bac
##roix
without
trial
yacht
monren
smirk
eighth
fro
##ful
event
sprang
hetarth
camb
email
##ounter
incon
like
##ies
##ney
leap
stan
though
dittrich
contrast
fold
sr
demand
##cr
##right
ipad
##ard
laser
jaquan
##ahtel
esc
tournament
##atient
hate
talon
terri
##cent
bas
mack
##lanc
brick
cape
toler
chuck
lak
##is
crescent
dallas
gh
hug
phillip
loyalty
curl
##thing
##istle
##where
##atic
cle
##mb
##icial
smile
brother
##ization
##ission
flown
##iek
194
told
duff
##ria
sand
weapon
##iform
etna
americans
hook
ancest
##emon
set
degree
sly
##14
kle
meek
sau
restore
broc
label
bully
qiaoshan
wan
pocket
zero
kat
hooves
numb
effort
trau
cr
screw
sauniere
##orable
bunch
youd
##annel
prolo
conquer
elect
ral
amy
ffl
department
lau
helena
tide
problem
##form
weight
frantic
in
sip
whoop
##ux
curs
below
##rey
vibr
[UNK]
##thern
##lock
share
window
cer
tham
calig
##itty
amsterdam
callow
blaze
aya
needs
orth
awake
##athy
##ation
wendy
pc
baudgew
neon
province
era
##urion
##apnel
preca
##usk
##isman
##mitt
summit
sandra
pandora
##0
ruby
different
pack
##artment
##tal
##anta
were
oclock
you
appeal
covert
##cation
##brew
wa
##ril
marry
loss
mental
pist
##pose
portal
##oli
remain
endeavor
##ude
bishop
triangle
##oose
##leigh
borde
##mas
pasture
coffin
##reat
dance
dere
julian
messenger
brush
wek
californ
egyptian
trin
enemy
lump
##ova
sebastien
alone
##velop
betty
supervisor
desperate
diamond
calvin
cent
##ogy
laboratory
##sey
##ida
pathetic
dock
mature
med
guilt
mobile
execution
juan
brute
borrow
beach
ken
##uten
lounge
hesitant
slot
crop
poet
dammit
peer
rebellion
##ler
saddle
chaur
automobile
american
roberto
musk
create
gown
southern
vile
diab
poll
kevin
##inx
laura
##chua
odor
##elly
##ces
##iddle
duarte
campbell
jimmys
##or
sl
barney
##ets
latch
shatter
reply
anal
stacy
deny
eryks
##quisite
fancy
recorder
carnage
##tch
tingle
bron
recovery
graham
ser
pil
chez
##istan
ketzkahtel
cease
##essa
bane
nico
soda
opposition
##wart
advantage
bomb
delay
only
walter
contempl
fill
cel
bul
vul
ground
##ourt
##ft
corpse
snuck
ville
angle
braid
method
ke
##omp
praetor
tick
reason
everywhere
sirenne
##ighth
nove
bluff
other
ishm
magistrate
##igator
jose
goose
##7
visor
arr
whip
shoulder
florida
ambassador
mil
infect
barbarian
struck
minor
##iforn
zealand
chum
hose
routine
##b
text
defe
cute
dust
sweat
cmon
fall
##o
predator
##aps
fan
chancellor
seorita
goliath
zanas
thursday
heave
spacious
swirl
##rical
mum
total
cult
barn
sp
moo
je
aud
christmas
helicop
head
##ider
detect
##uum
krista
##oodle
##room
##lam
##uton
##otion
thunder
instr
##entry
sampan
slaughter
jon
night
husband
inn
dumb
complain
isab
##will
##onse
##what
vatic
sup
##haps
natural
##ulous
##sun
##enet
teach
bid
lars
##rie
talisman
distinguish
##quence
##vel
##ulf
morn
revel
street
##dden
between
minister
alice
county
##athe
superior
brace
subject
##xic
proud
plateau
choose
instant
double
river
dread
julie
uncle
once
ary
jimmy
wrote
##muller
magn
melancholy
##yl
##iod
gaze
hen
copper
solar
guardian
canteen
est
annoyance
##vard
campus
hobby
garden
e
offic
skull
##ras
##ingo
applic
ap
tec
scabbard
plat
aryballos
yokuts
irritation
mcmur
intent
##mn
carn
nun
mountain
intersection
finans
j
econ
perfection
representative
eleanor
an
felton
dad
espin
##er
isaac
conner
quechua
point
neighbor
dip
uk
nation
##osh
rebell
##icop
crystal
ak
##olute
modot
mikhail
bur
##rest
ankle
mole
andys
##ingh
memory
time
kendril
on
pap
martin
##spe
file
mayhem
##iciency
khaki
wolcott
petty
territory
pi
cash
helm
dre
shelter
whin
seek
##udder
##way
eng
bill
>
##rod
bank
kenneth
junk
##ache
gulf
##iz
oh
sober
science
crovirs
jazell
persuade
acce
allow
artificial
##ok
##gend
pulse
forbidden
##uh
191
film
bible
pill
hellem
quarry
const
marg
walsh
##ncastle
##inal
##son
bepp
deal
apprent
brooke
exh
gav
kathulis
av
##om
schedule
prior
barrier
enthusiastic
##ract
flavor
duke
abund
##tenburg
##ger
dele
##kle
pamela
##yer
##ckey
##opard
else
rowden
##archy
opponent
arrogance
dave
##gle
##di
defence
devast
care
villain
5
dick
harm
bond
##vor
seattle
meal
generation
##illery
felt
reverie
21st
bushel
##pson
treach
cooperation
wad
glimpse
blast
davids
slash
kov
jameson
pab
trust
alarm
scramble
kentucky
matter
perry
vegetation
pardon
wear
dome
final
pue
apron
donovan
peculiar
mand
dial
##xim
comfortable
##sworth
dant
chose
maintain
cisco
duty
thud
monsie
]
ride
fine
produce
ne
vill
university
lic
exile
it
tender
ritual
##ranean
delta
kl
hair
insur
##wh
mut
atol
thousand
soft
tale
haunt
sake
##unch
lepage
##gob
flip
supervis
avenge
goblet
harsh
##ism
##pha
thicket
chocolate
lava
eclipse
acid
antique
minim
##kinen
hes
##am
##inc
prep
##nam
compassion
ape
prow
humble
matthew
joint
louis
nausea
##lot
caliber
bred
frog
boss
##q
##pl
document
##iter
obe
rustle
sage
rhyllann
thread
profit
order
gree
conv
##don
hasan
##inent
tiny
##astian
clever
##ooke
least
sk
merced
##inker
little
bro
,
cind
##ame
thank
article
edith
hitch
stomach
##uma
murmur
cantwell
dri
##band
blom
steep
tomm
herbert
compre
##urn
crime
haro
introduce
adele
jerome
prison
corner
cra
island
albe
refer
laban
subsequent
##andestine
##kk
cruel
kept
poor
coward
##itable
nazaret
dierdre
rel
##thm
##iasm
##ing
##esh
patch
lest
murder
gang
kimberly
nail
##ings
flew
tennis
twitch
velvet
##inald
fresh
##rent
estoban
soviet
stanton
##ezvous
##dow
gri
mart
15
##blem
knight
##iami
gurney
##ield
jane
fl
believe
trans
##enson
##by
finch
duchess
overheard
save
virginia
beth
skin
##aint
ticket
celebration
fact
occasion
reserv
shrink
dag
series
hurt
##van
##ense
sid
impenetrable
##sure
shar
##ulse
##igan
tom
##nd
jewelry
status
ret
wink
safet
##umption
##rate
withdraw
##tern
##itive
wood
dal
cloak
##use
##et
consider
lap
tipp
##rain
mct
strict
##nesse
apparatus
ende
vellacrus
brians
kang
##rity
thermal
sample
buck
##bar
criminal
##olve
##y
stalin
inev
gratitude
mutan
seth
letor
appropriate
nick
defiance
stray
##pper
rem
##perate
mer
sele
##andez
##aham
##cture
delivery
emb
patient
capable
fu
seamus
blur
bradenfield
ocelot
kate
_
stat
sound
knife
gil
q
curtain
##olyn
zabronski
register
##uctive
##wall
maklavir
##orus
fourteen
hur
pam
plausible
sting
discreet
up
##der
go
giant
##mons
morocco
##oom
cough
mission
mine
dot
ann
valid
diff
##ight
##ze
frederick
klein
rousseau
applause
wendell
narrow
scientific
basis
juliana
distant
urge
##less
difficult
##itar
##ripp
##sell
doin
persist
year
people
mariuss
lena
slender
etret
ark
##eta
triangular
cell
had
trek
nothin
##venge
wool
dominant
bee
melo
##my
pro
subra
soup
danger
##erc
illumination
grease
##aza
tight
church
wolf
delight
##ars
bath
mai
panel
petro
##children
##ens
nishga
rik
##ift
perhaps
camera
philipp
relay
cushion
##ential
garment
trot
here
maximilian
manner
goodbye
flung
sne
pret
sheikah
##ryk
cott
ease
sarcas
##ieval
organism
squant
arch
41
muslim
##oth
##modate
retain
innate
str
torch
##ever
rely
december
chilled
130
olympus
##cend
tay
attend
loan
##ograph
vault
are
prom
tense
sm
mohammed
gyps
el
then
##ction
hyl
##agement
challenge
brav
incred
crew
lav
37
##arch
pigaf
daves
transl
statue
surve
sig
enjoy
send
reward
##away
paranoid
various
james
##lyn
anxious
pop
##itz
sweep
flour
clutch
scotch
per
tv
ra
although
signal
knapsack
gle
25
aust
charlie
parachute
random
ask
rick
magnificent
mock
intimate
ruths
galaxy
xot
##io
precaution
zach
permanent
seven
##ak
shell
neigh
sixteen
carcass
##ni
civ
[CLS]
scum
##iance
knee
yup
almost
crisis
discuss
cubicle
##anche
deserve
##bridge
mor
vis
agg
dracen
xotalan
##ensive
inocent
stir
london
##age
di
whis
soil
fbi
##aire
##ricate
pact
benny
traffic
rale
##rek
climate
bub
ham
glory
youll
recoll
towel
grains
pame
attractive
##uy
benef
took
commotion
gerhardt
aint
mcdougal
kaylie
civilization
accept
philander
atom
##iva
someone
##br
##cys
mail
##uggle
etretat
women
##gen
##off
lain
tosh
barricade
team
##ucky
consent
##uji
uran
inex
##li
##ith
##vette
admin
artific
hosp
jurg
stop
}
##ara
la
##iday
obtain
##naissance
bull
signature
raym
tech
leak
wild
celebrate
intr
pause
##ds
##cel
yok
iii
circ
##ronomic
edward
smart
mul
gallery
mom
##icious
attack
eleven
##pr
##if
tonight
tissue
mex
sate
lamp
tire
anno
##usive
##indale
decent
##uel
##tes
home
humid
herr
##agon
respect
praise
drove
##rian
##women
tara
opt
monst
lee
osir
thutmose
script
arse
flash
grandma
cu
##otic
reggie
detail
patri
aramys
drethlords
papa
cycl
##inite
keech
amount
##thetic
crovir
roth
kale
cobra
smoke
hits
mentor
sexual
vale
victorious
numerous
chapel
ago
##gain
amanda
##berg
finan
##ador
##uff
##ilda
##bby
agony
garbage
squadron
exas
tad
lecler
kallel
##astly
##bur
##all
goat
utmost
##ivia
scroll
bre
pron
##ign
capit
wyatt
upside
genuine
##ck
varvara
market
52
zale
celebr
##was
moustache
contract
chup
fer
jacques
collision
##nch
##seus
coast
##ndo
##istration
stilwell
bleed
therap
vio
pre
##ns
career
burly
##ilion
facility
sarrah
iraq
ralph
##rence
##foot
gee
venture
mechanic
##ares
moral
##mer
issue
terrain
pud
fool
anth
reb
thro
##pp
inch
ru
##gers
wont
americ
lace
##50
nancy
##aa
ulfr
##stood
kess
snap
##ho
##ure
dwylar
4
##inous
unless
griffin
ekon
##ac
limb
##ack
till
champagne
module
room
phoen
prosp
cope
nor
##ollen
##ove
##lly
governess
rav
fierce
look
clad
sprung
et
gerry
de
descri
##ault
architect
swollen
absor
atkinson
pith
##gh
display
##nell
crouch
watch
gab
shrank
##ating
sinclair
toby
diplom
##yss
isis
sanct
zok
vincent
comple
conceal
@
wet
asph
stra
moon
##mm
mary
scal
##chant
everyones
##othy
haleton
weary
dyn
##outh
surre
www
##ted
ch
##rav
hoo
##ible
##ape
kn
definite
reveal
weko
mummy
pour
reduce
##iley
stro
admiral
worm
mousquetonne
loud
##ghan
##obile
espinosa
alien
effective
strate
##bt
will
comm
raven
bou
lara
novak
cambod
flock
phill
be
woman
##j
faint
description
##igue
nova
thirty
angeles
ib
feature
200
oce
recip
virgil
slow
f
flu
veron
collect
tun
##ass
##lair
anlaf
mistri
recognition
0
dump
visual
mixture
armada
pump
phant
whistle
##ons
tarsin
brit
##arm
smashwords
rhyllanns
grace
pand
circus
cau
sped
bounty
##azon
itz
shrapnel
##aker
france
##ament
act
glance
##bil
ven
decuma
antral
headlong
choke
iranian
##chs
##ung
##parate
ressna
oneill
number
fuck
table
##uation
hilar
##ced
rect
chat
resident
sketch
previous
lone
break
rest
stance
gracious
alley
enthus
trage
necess
princ
gosh
##ole
##idate
##sha
shush
##inary
mother
christ
##ix
badge
amen
chess
vend
reconnaissance
queen
tent
miskatonic
conce
power
youve
vision
silver
appear
catalina
duck
gwaum
pope
kims
pinch
triumph
##ers
;
##reme
##ague
abyss
bronze
girl
raid
fjord
elim
relate
serena
chorus
insist
sque
steak
hey
stud
operative
molt
bracelet
##ut
quick
correct
##that
affirm
burger
blesonus
takka
gave
bizarre
##oney
fatigue
penet
##itect
##ald
steph
wulf
transport
expl
maria
##owarrior
mess
neutral
raj
##inence
wit
hong
carvalho
elo
couldve
muscle
belly
domain
response
thrill
cert
aria
delicate
include
##rd
##umn
sliver
perfect
hideous
moscow
victory
teeth
grat
ind
ancient
sevent
montrose
pu
##most
semi
m
##chest
example
jiff
##anse
what
canler
##uate
maam
stump
li
plague
thor
crypt
broudie
remorse
##aad
call
anna
momentum
##bit
germ
nut
teenage
cement
prote
rap
cann
jonathan
##edar
cousin
bogdon
##oria
darzan
lep
fix
adm
property
##xture
tippit
embassy
chief
##gn
push
chain
##mage
asse
digby
howd
south
pistol
lex
grip
repair
extension
graduate
##fore
##iage
member
lania
father
callahan
thorne
capture
darins
jan
nasty
enter
robert
pant
wal
channel
sin
miss
##iculous
exercise
dove
nes
jolie
dignity
##quetonne
##vie
click
pint
195
miracle
intense
mormo
yamir
myriad
map
size
rach
troll
not
dug
##ed
##imp
flower
bea
canadian
tanemura
severe
happy
##getic
##orse
##one
china
lieutenant
##jection
##re
##il
fiend
drop
bore
glock
inhab
lair
femin
clem
##etics
##bey
eitenne
glee
##child
prissi
##itan
barge
barri
##scri
khan
product
supply
weve
stride
##walker
vit
angel
##tr
volunteer
knoll
ripe
torrent
laureen
deliberate
##rim
holt
##ceptive
alternate
apc
contest
germain
gurn
hue
smooth
marlin
##asant
brandice
slick
epic
score
derroter
##aur
##unt
assassin
##choly
ais
bio
##yon
islamic
##a
tuffy
geor
planchette
##lah
fist
metro
grasp
coal
tarp
majesty
malcolm
##antic
wed
th
##oming
gabr
kyule
whom
cor
##esis
riches
ske
translucent
cindy
note
berkeley
bol
fut
glad
lookout
camer
##ulis
##ability
poppet
lift
rescue
##ynth
shutov
lick
jest
bulk
akbar
serve
salv
change
owen
proxim
these
anyones
##phone
regiment
no
##co
wat
##ison
confe
semad
ave
butler
blanket
arose
suzi
crit
tram
try
gau
quote
##lir
eerie
place
##ington
cybil
amara
tob
liberty
##licate
##jo
siren
purpose
tamika
##2
progress
do
compan
shot
##ector
general
##bye
gravity
##ado
scan
rubble
##ire
moan
field
excru
##aha
ornate
dark
media
countenance
charlotte
commander
lord
##itary
##let
langu
##par
clan
russia
sheath
profound
formidable
mou
mutual
##isf
lame
##ctor
flaire
brew
##int
depression
snatch
ill
##orp
##ially
diary
cream
brun
##aude
pendant
jo
sway
limousine
##gage
trepidation
##inn
bers
of
##icle
ph
endure
##nas
spoon
inspector
retrieve
fence
bradley
##tle
jay
shave
##ores
madam
##lle
jolt
##agger
larry
##ael
hetar
hurric
3s
certificate
impossible
agenda
bolt
##ky
dou
##ance
area
##you
##ieu
analy
extreme
extrav
burge
##ture
melissa
##ba
mysterious
balthusa
crown
infant
##th
express
liter
warn
ecst
cal
rex
dispatch
po
occas
adou
takeo
monte
willow
dinner
##rison
loughead
##lim
formal
over
ai
dupuy
cirile
grave
##ager
##znak
insane
herm
cul
baby
rena
park
##gic
(
##rano
resent
alan
pitt
gale
martindale
##izzard
blood
##ark
##ann
##thy
riverhall
lub
diameter
syr
emph
pon
prick
antar
tarrens
freddie
##its
ready
##ff
balthus
##rack
hyrule
disturb
arms
##got
joy
jh
exact
##itor
##ui
crucial
organize
farthest
int
central
exterior
##arine
survive
wish
privilege
cl
##lina
zelda
astral
rebecca
survey
##led
timber
adolf
sem
##recy
pra
wilson
fare
colle
fly
tiss
most
vesse
007
sharpentier
sue
##asis
##idst
scene
ketzk
sof
werew
##imb
british
arthas
um
cavalry
##olis
klaw
##do
sold
##mit
anub
chase
mechan
phone
mo
purchase
fam
##som
##man
lunch
##uition
##orf
maneuver
perf
come
mrti
flask
andre
cont
buff
abbey
archie
guarantee
gear
bye
dexter
supreme
francesc
##ound
plenty
##oid
ban
cap
four
nott
pe
escal
prey
##yond
lilly
whale
##vik
tiger
lola
##thus
demonstrate
michaels
road
interrogation
paw
laundry
armorth
furious
leant
cloud
jeffrey
october
##um
energy
##ony
fac
version
distract
stom
cond
asher
suburb
demise
encouragement
anticip
voy
terwilliger
##mod
battal
##ito
##imo
leland
rece
##itzer
forgot
medal
techn
machinery
enterprise
soak
espec
leah
##arian
canada
tea
cup
##hur
intercept
##ty
telephone
tor
tie
http
##est
groan
tis
ernie
descend
ocelotl
introduction
moisture
##robe
memorial
spani
advers
carry
##gest
savior
butcher
throne
locate
present
cheek
damage
knaps
nishgas
##utive
corporation
inf
within
temperature
discom
institute
rein
clam
##uity
butch
##hard
weak
integ
yha
reznak
strewn
paper
reve
facial
##ef
alyrin
disaster
america
##ug
sheer
##ipe
jacky
##ident
##nation
##ome
ir
spiritual
mansion
saucer
cour
yank
banquet
##agio
##ll
lab
hitler
##tain
##bour
dex
circumstance
cardinal
taut
##ail
maya
dalton
underst
cand
hardy
twin
summons
surf
interrupt
exertion
'
makeup
duel
responsible
ger
heavy
##isen
louie
##ourn
##acieux
tomaz
veter
tape
cillian
tut
wi
cable
blank
mouth
her
clar
savage
gigantic
end
sess
icon
louise
disco
varick
trance
##vo
rand
jerk
gwend
##ond
solendria
beh
ronika
obri
guild
excruciating
##elt
deliver
twenty
urgent
hospital
##ulas
wig
splut
crewmen
suspect
##iator
critical
guide
francis
##ash
pedro
duct
sac
influence
slug
partner
h
joe
noah
away
rack
grou
liver
##ision
fisher
observe
##mann
pom
italian
arnot
##ilian
realm
##vice
gesture
anticipation
##loy
enough
chic
##ister
hurry
##riage
26
##ater
neck
match
structure
##pty
majest
music
##laim
pool
vellac
envy
volume
ensure
##ally
shaman
significant
awoke
rob
##hail
##donald
sn
fade
imminent
russians
##ention
weap
vote
since
ultimate
certain
flick
rape
infirmary
##held
empress
black
circumst
letorque
eli
aislynns
twig
##ortex
##xus
dia
##ouse
##olov
print
##lare
timothy
corrupt
##pt
buy
##rupt
##iety
##ook
yune
crowd
##tore
money
tarz
thr
evidence
richmond
lief
prudent
bullet
exter
frequency
steam
tornado
rang
julia
machin
bonnie
crude
boo
dollar
##be
technical
ignition
##esse
universe
infern
shallow
##sson
22
mos
please
blend
melan
stay
thick
\
##iling
bad
either
##uller
audible
slam
##icken
tristan
scorp
alex
##ta
interp
lindsey
crotch
sham
gum
innoc
##rific
fame
##idge
bag
experiment
pix
glenda
sed
##im
temper
##nament
artillery
kos
jonesy
##ruct
##ts
hollie
paradise
manage
honest
mcd
veteran
pakistan
kar
underneath
##orton
typ
##order
eda
##sden
subt
tennesse
maybe
##vene
polite
prisc
##anna
camoufl
daw
##ingle
##vi
nurse
surveill
carol
coarse
millie
braden
bund
amulet
occupy
libr
dec
currency
program
dar
##len
##avan
harris
##ios
secrecy
bazine
sob
##ley
glac
sparse
sarn
peng
##escent
morgue
afghanistan
##id
##iation
janik
engagement
mendoza
{
bin
francois
gephart
gir
##ales
amb
door
leather
private
##anch
reserve
countess
phantom
oasis
tooth
fear
cab
jenn
pec
##ww
spain
##ument
bridge
davis
pul
understood
trench
electric
sanctuary
attire
##rington
monarch
show
satchel
##join
give
##thl
but
rout
rail
scre
battalion
##rid
old
##sons
##gypt
##iple
hem
right
caught
georges
monseigneur
hernandez
ferocious
model
assure
protocol
drank
via
sled
protect
born
haven
compreh
conduct
mick
gallows
price
galley
nin
kinda
arii
nathan
leo
dig
clean
##gar
tip
holster
hilt
mulhearn
val
rank
coyote
##res
hole
practice
lizard
defeat
paso
bulb
encounter
##ceptible
claudius
006
ho
ambush
##elle
##icate
charity
tarren
load
##erness
##agg
##rens
lumber
##unk
story
##agne
suspicious
silk
##uous
plaque
##opher
##very
##cle
tam
urban
##asia
##z
zog
eye
vigil
audi
##ult
photo
santa
bm
earn
dragon
rub
mecha
brill
sas
##sw
departure
##ilia
duch
##eck
sandwich
dane
drown
##rium
daze
attach
wondrous
resc
desk
nita
kangee
constant
funakosh
asenya
fren
indign
ammo
lobby
suc
magician
scarf
recognise
due
##lt
star
##da
tiel
contempt
take
##ott
summon
bask
##phin
stink
##nic
##lon
10
sleep
sneer
grey
##hou
bacov
costa
t
column
tidbit
ice
##itage
##ob
potato
moroccan
contemplate
troop
favourite
##iis
feat
##lix
travis
cone
lure
productive
frost
wound
##itation
nothing
com
plant
##ter
mexic
fell
isle
##laf
##olf
nona
japanese
mag
lot
system
dub
whod
trav
mean
##zen
suffer
47
hed
shield
truck
##gy
today
hid
secretary
leb
recover
weiss
two
sanjeev
##rial
whine
##ral
utay
##bida
subtle
vampire
stark
luxury
##hammad
affect
tas
skipper
ade
venncastle
against
ou
its
cogn
lens
ninja
##ery
anderson
raise
convoy
gorn
##dock
exam
dep
que
holl
##iar
melina
arrange
##orney
tone
ab
ca
soul
concept
obscure
paddy
close
jew
token
bunk
##lass
carib
maximum
zaad
matilda
company
kong
above
trouble
sentence
cre
##inguish
hit
daniel
max
berlin
aft
brig
unt
##ordinate
accent
prim
qu
##ribution
jol
along
marja
##rad
im
dais
pegas
clo
sheet
enc
scarborough
##onic
alternative
peek
stub
yorkshire
##uv
30
suz
vic
spear
often
optim
isa
syl
group
damian
##gan
icy
alysse
rib
##andal
cool
supper
ric
clue
incomp
visage
incredulous
em
cock
strauss
potion
radar
##stern
spark
pine
vuk
early
vial
##orth
daegmund
##ourse
stroll
inv
another
##ative
fortress
##tt
nish
soccer
scarce
picts
portion
sunken
stone
salad
cut
shriek
bare
##sc
briar
##ffe
trib
pull
chinese
##c
put
suicide
##dgew
simmons
deaf
al
hung
nucle
##more
201
druce
play
taught
drain
henriqu
met
principal
hop
##ovan
envel
return
#
three
gut
##ndry
##ci
pey
super
surg
benjam
flurry
w
##enus
tablet
malay
##dder
destroy
sector
union
crash
##andra
steve
##raph
sus
##etor
stout
glade
lang
gogg
clang
pak
##itch
altan
probe
o
picture
advance
tiff
alcohol
##aft
##ifle
jacob
raf
straw
wheel
##zzle
commission
february
goli
nora
##ulsive
keen
amira
horizon
ooh
wol
tommy
rh
##up
color
fifteen
fur
address
penny
simon
coat
##born
allisons
index
spiral
##assador
adventure
yam
pal
##oss
frail
hang
##borough
roan
origin
anat
aide
estimate
somethin
##de
cavity
arno
schmitt
evendell
6
data
sara
frown
lamb
nose
gem
ok
sokolov
rakkian
lantern
shock
spite
leavitt
ryans
tuff
olivia
##icuous
takeoff
after
gr
cattle
entrance
ate
##amar
each
hill
been
hostile
make
recipient
ackturra
29
##uese
minus
chancell
antidote
funakoshi
aislynn
spice
##cela
##ima
##le
soldier
sustain
rage
walk
aug
ambulance
passionate
slice
##ou
ter
inj
bury
hudson
hah
##sect
collin
olmec
mms
equal
sinc
about
obliv
lt
jackson
##asse
biscuit
ivory
pile
sens
198
llama
ghastly
amer
lovin
darnay
salute
mortar
miserable
shit
indiff
historical
hawai
las
foster
ty
202
##zy
mason
victim
chau
##sue
##lin
##icy
plug
##usion
potent
lesson
flor
sixt
lady
aware
adri
cruc
+
peter
clay
apologetic
eth
colonel
##ica
hello
kessler
var
canyon
clayton
##opy
cartel
penelope
i
##ath
aspect
calm
jackob
tart
##court
coup
##ansen
##obe
glass
richard
##andel
offense
began
accident
##era
##icide
sie
thirst
carpin
art
mich
alt
jet
##ster
achieve
##bris
##ulge
##enture
wren
monster
medic
ar
justice
shop
argue
prefer
##dens
assistant
centurion
koskinen
fit
##gio
liber
il
miriams
absurd
compete
pr
austin
fat
rational
proc
saun
chap
##ino
claim
##sy
##ways
##rus
##uz
pry
shah
slope
##to
bold
reviv
plus
keep
intricate
##alous
anti
##ception
##idote
jennie
awaken
nept
impression
ag
medical
coma
##fet
hail
mane
intell
sturdy
zafira
##castle
impo
##irt
small
design
##adel
protest
##vent
alyr
empty
lyss
##aven
##ace
mik
wor
ress
stricken
flourish
lu
hereford
##lic
##estine
##dle
##enburg
character
fier
comb
kaplans
mist
##alan
audience
diversion
klarn
inspection
sheep
just
##urt
dead
luanren
##tin
ere
steady
##asty
bruno
australian
##vous
queue
ple
binocular
07
makeshift
##oor
necessity
divorce
mercy
error
##20
wake
##sh
array
kendall
##pm
repay
emp
senior
bait
kind
gauge
##iel
ram
craig
stale
da
mayan
shame
##ov
##po
page
##amb
cougar
orange
corps
expertise
##irk
appointment
cardenas
this
consume
bran
hiram
broderic
##ise
convenience
impulse
*
laurent
bry
paco
immune
serot
##ulus
kirtags
stench
wic
dian
wil
fork
britain
net
##u
darin
##ling
anguish
louvre
palmer
local
x
under
drunk
caesar
male
##allion
shudder
ras
##ion
##fer
modest
##4
dall
maggie
##onne
##aux
external
31
smash
ragged
camp
kaigara
enem
##erra
law
enormous
true
aval
alfonso
crawl
coh
booze
lat
accom
##oline
answ
hint
bentle
factory
grime
cop
pin
12
wr
sod
antonio
perfume
vol
machete
##otep
amber
regular
distraction
nithotep
chrissy
flinch
##sa
car
curve
caligulas
straight
vibrant
distress
touraine
aband
irish
await
bobbys
which
explain
interest
##under
coin
object
##iner
his
social
trio
##aro
##ped
syn
##cur
##ast
trous
ever
pa
positive
sixth
circle
##urdy
cat
puppy
peace
seldom
mexico
comparison
your
sick
military
##itt
##iative
berg
wander
##arte
analysis
orchard
hunch
there
violet
dean
sou
help
divide
cere
medina
worth
gene
boston
philippa
scinth
saw
stress
ruck
boh
lit
williams
wash
eis
dry
aston
balcony
vict
screen
abby
##nt
pay
##itude
echo
rash
loot
agana
##ois
theyd
##elp
drink
dire
shape
addition
?
anson
canal
salvation
##land
marat
gor
hellemann
halo
vene
##iid
sag
boris
pierre
cold
##uise
satur
peak
pretty
content
serrano
convince
sedan
saint
gorgeous
marco
zarr
marsh
senate
gall
round
concl
emer
##ump
##ics
stature
joan
mortal
bra
randy
arrog
##lan
dedic
herd
firm
##ite
nave
cryptic
cran
owl
prophecy
strip
##cous
##orge
forest
agrippina
kath
maf
store
someday
orig
capital
insurance
raphaella
apolo
ivan
george
wtr
percy
rucksack
##it
ominous
penetrate
##lith
razzaq
16
manfist
tremendous
##sack
distance
theory
pall
##osa
interrog
##uct
##igh
om
bast
wednesday
tum
##phant
ballet
##elia
stable
jr
##ust
##ph
b
scree
rev
yep
knelt
##kel
costume
swung
harbour
##orous
##ushka
##fold
blake
oc
ig
piz
customs
jog
##of
also
air
pulp
elite
swig
much
sorcerer
priscilla
haydee
account
broad
henry
splash
sanjee
tattoo
exotic
apply
terry
confeder
leaf
##pe
stretch
##iment
##mans
tractor
cad
axe
tir
catholic
dynam
georgia
banner
brendan
spire
september
bout
horror
associate
pipe
cruise
manual
mal
leon
projectile
did
##uish
##ord
lux
shiver
##oph
operate
zos
focus
##vant
nan
camaro
pain
east
always
hostage
shrunk
lo
##at
contain
haw
##abeth
##ifer
wharf
##roter
##oll
astermine
ceiling
lost
##erial
landon
thigh
boulder
halt
posture
interior
envelope
millenn
surgeon
##ime
bench
pres
##imate
holly
##val
sudden
obvious
equ
protoc
farther
iris
villeneu
prologue
jesse
guar
commun
zan
##vin
##chette
jac
suburban
excuse
lough
primitive
toile
##ower
official
skar
proced
cadiz
##gs
jim
worse
gross
strong
##den
##ension
relig
veget
##ern
ath
drethl
##ial
##rote
beretta
dr
grain
visible
fred
division
bamboo
stupor
injury
rot
silence
##etta
chriss
batt
opia
jacque
mu
famous
##rip
terr
flanahan
explosive
streak
erica
fast
such
grief
turk
compl
##bid
ped
guitar
##hile
ole
jaw
captive
heal
neel
hyru
##ence
##cus
##oop
read
into
bree
z
##va
##olate
##eph
##but
##ild
150
##ete
hu
##vet
ink
decor
elusive
quality
fellow
chill
##ota
27
erect
hol
tork
dimarico
harold
##ogue
port
hide
conte
ener
ell
daeg
introd
salvage
pupil
agree
coff
sex
scope
muhammad
van
)
ten
inocente
reception
portrait
oil
for
mult
199
##aves
clift
wall
malc
helicopter
multiple
foe
guest
flaherty
##ant
lack
tension
the
exha
dakar
hunt
dun
magnific
irony
##com
ma
pir
lucy
fetch
##sp
usual
squad
pend
happ
dign
explode
hear
##vern
campaign
baba
future
female
deli
assign
indicate
##fric
emma
moy
cheer
##aign
joshs
immed
twice
incident
mug
##any
oswald
##ale
##ship
humiliation
lyssandra
brand
bravery
##ret
##read
branden
dan
gy
techotl
##seigneur
static
lucas
hyd
pizza
rush
southeast
veh
sort
collective
##ural
anger
vall
broder
insp
bebida
thou
project
stock
##erty
pepper
sar
through
cele
##itution
gun
europe
acalan
zaleb
adagio
fr
clump
conclusion
sight
cinnamon
vell
beck
suggestion
fang
exec
quest
ry
##mund
humik
##igo
signific
vortex
fright
eagle
vod
desp
misery
officer
##day
##hood
##erd
##antial
polar
pencil
##lov
jiffy
priss
increase
pink
sensation
info
pillow
prov
##aum
drac
ache
naked
2012
succeed
##osition
discover
luan
##ous
##air
crow
cotton
lag
invest
##over
tang
family
rogue
cord
inc
kriegman
meeka
contr
paul
##own
naitty
knob
acknow
barrage
block
haze
kap
##ines
patio
raff
as
shark
clementine
butt
stri
##ona
stryker
##ving
boom
geron
fran
armour
yeah
waist
pyramid
##able
innocence
voice
fragment
get
shove
threaten
scram
adv
##mur
austral
racket
dose
##owers
torso
respons
prop
eag
families
bolgob
profile
circuit
camouflage
##board
arrow
figure
eden
40
##ient
shirt
erik
##ante
solend
shelf
mirror
attention
##lik
##achi
apprehension
scrunch
##act
unique
galba
frigate
invent
mario
revelation
appropri
##aka
##ered
identification
sleeve
relevant
oklah
elcano
illeg
##ati
andrew
cong
hasnt
##ais
annual
zinz
##ices
##igneur
pad
##quiry
vodka
##upt
##mere
variety
susan
oath
lar
distraught
vague
tactic
colourful
50
kr
sav
let
bright
##iate
california
##mose
huh
professor
search
ordin
suzette
brix
##cas
##worth
okey
record
smarkzy
temple
horiz
bash
glide
##oul
##ine
##vre
pursuit
irid
fatal
yell
cylinder
best
lilith
##ilege
p
appar
##ya
vivian
sheila
outcro
husan
dilemma
terwill
quant
[MASK]
bis
jennifer
bab
admir
pillar
##inel
##00
cy
houston
negative
puzzle
tear
##ero
march
octo
christopher
parlor
scrutiny
lac
cook
##ury
##ban
tobacco
##min
absorb
proper
jhovahkan
megd
##etery
turson
warrant
ambition
##roll
chip
cigar
beep
##lta
##suit
##pert
volunt
maddie
float
punish
elementary
enclosure
##ev
lose
rousse
##gether
##oot
scient
ree
mens
dialogue
back
aaron
##prise
except
atalai
expanse
ment
sweet
pract
flo
##ors
electrical
maze
allah
obst
restaurant
##ody
ala
##laid
rom
muzzle
ship
foreign
third
toilet
umm
bleson
jour
ditt
client
hav
nest
taelrok
respond
cav
##p
##orn
gen
browley
##igate
tile
strain
colleague
iron
cheta
pace
find
nature
##isure
wedge
resort
##sen
avail
##die
galla
bar
zombie
##itant
##od
186
##ill
strode
##ght
##rif
remainder
shore
artif
comment
estate
##ato
compare
soc
regaining
mk
odyssey
vance
##rum
cub
plaster
goo
od
caravan
tainer
procession
ration
behind
seam
flee
##fl
atl
surface
ide
##ua
flon
swell
fabric
phys
##ward
pretend
##ma
##ounty
merrodon
pregn
mere
ego
suggest
##illian
theyve
dealings
##ression
##bidden
nephew
ounce
bann
ach
sto
emell
##here
##aff
better
navigate
gone
evolution
skoda
##rok
manifest
station
pueblo
##ps
russ
spell
panic
henriks
mir
vip
sarga
conviction
left
hawk
kalam
ore
cimmer
harry
durham
##ows
##nis
jones
veil
##dd
diesel
wick
dis
confuse
brey
distinct
kp
tragedy
##ahkan
weird
##utation
langue
immense
bump
bring
symb
pants
imm
##las
expect
library
pressure
illegal
grenade
short
##cade
##ari
pickle
##fect
##uge
hockey
##cket
collins
mic
hs
secure
##uts
stung
##ltli
sally
laure
rode
compromise
##cri
saturday
##enance
mister
personnel
remote
kirtag
scorpion
ulrich
creative
froelich
avoid
tael
pis
caf
popular
jab
##mel
sheriff
##ition
novel
spy
##urb
romance
kant
197
##acham
obrian
zul
participate
marielle
##field
debris
##me
director
food
##elve
prince
##athan
hector
studio
describe
neph
jesus
hal
ri
barbara
crept
how
sauce
wilbur
jp
gest
##arette
navy
frig
rock
african
jasmine
bead
##mic
navi
##arrior
##aine
eisldor
ga
displ
sty
mechanism
india
gul
##lude
slab
st
marcus
vancouver
champion
##ella
tree
mujadeen
bat
cry
johann
##ause
##aton
##mail
johnny
cast
jess
tug
dierd
latin
apple
stage
beef
arith
plot
chart
##ga
jeanine
chris
mace
toshie
tommys
strategic
commit
valiant
bi
compet
leapt
kim
##idad
gam
jetty
blah
tarvik
vi
shout
vacant
##ique
##version
##oo
##hammed
brow
##ic
##ner
##ron
pod
pale
##ilar
[SEP]
drill
trick
af
metal
if
##oman
lach
molly
lorn
alert
sister
binoc
##ths
sean
ukrainian
pity
thompson
lilys
##move
##pet
##inger
##ocr
##hawk
##uty
##urch
##cell
non
tomas
neg
stephens
experience
##ch
flow
curt
tremend
course
##cl
harness
##iew
whiskey
##sess
dingo
stef
apprentice
dwayne
fight
assignment
tremble
polish
##rant
doll
##scription
mutiny
##lipse
steel
##ience
soph
hou
perceive
##ortion
##awn
muscular
##she
75
vamp
merit
asphalt
idiot
could
##ol
automatic
febr
furthest
purch
##ope
tub
##ose
pol
##etch
more
fiddle
scream
miron
auburn
charge
gerudo
##acter
##eryl
mustve
accompany
movie
gold
perspective
lied
league
kpun
rus
sanctum
majiid
ye
chee
prud
stiff
lei
##rog
threm
deer
parach
impl
thought
came
lend
upper
sheik
##ator
thre
##erous
oxygen
krie
cia
korea
infam
fox
forty
major
impressive
fail
##ndell
init
skeleton
ve
represent
##ada
trip
##llann
ops
##hardt
throat
insect
qia
residential
shaft
##hat
greyman
##vee
robe
##onga
predicament
##mun
merriam
warden
mind
bird
##thew
maj
evening
laid
medieval
romans
##ny
fest
liz
eit
residence
##ste
pos
chamber
scratch
verge
mana
zen
##ush
ton
coplaw
anton
##ax
chay
brain
luis
tobie
talent
bobby
##nie
scrut
rover
##itute
nance
sf
##wah
sarah
jacint
deg
safety
##ouver
throng
realise
jerry
mound
mar
virus
rome
##mma
spun
##urry
cow
exert
##1
frie
hoshi
dart
gw
##kok
real
24
varus
sterile
pops
rate
sunk
howard
zoey
##ldron
py
##avor
subter
speak
##arden
##ective
spray
##bys
falconer
pose
gallop
##ipal
treat
peril
pledge
infirm
caribbean
red
treasure
artagnyn
steven
##enser
vestille
##thar
napole
intervene
ah
tran
arabs
frodo
thut
mirth
penel
attorney
##cest
protector
seem
jas
gorm
bever
rude
credit
trump
##yr
ss
##umble
fever
eat
##wn
trojan
##issary
demon
brixby
wine
lay
##ancy
claire
dish
##ort
##ife
tru
ward
histor
honour
ribb
solitary
nas
faldar
##jan
##iry
saliva
donkey
is
tele
marial
congress
apprehensive
craw
intellect
feroc
weissmuller
mask
padilla
leeann
blunt
pregnant
land
devil
off
kristall
sworn
##kinson
swift
bottle
krist
##icament
grate
ol
mc
vase
##ille
univers
mrs
##rior
kimber
curse
##ificate
late
debbie
45
intercom
##cul
##omic
##ize
satellite
##rr
whore
alcove
hench
emerald
tem
anten
apr
intuition
opera
gyp
recogn
carpet
##iere
collector
youre
hero
##ffin
32
myst
##ople
out
cost
sorrow
kathy
rafe
=
exp
listen
seb
meacham
plunge
mead
wond
hat
##oice
ze
spring
##aqu
##ang
##icient
imag
chaura
ricas
solomon
beryl
mund
##ulation
canoe
90
lycanthru
allen
chop
##kat
hospitality
##ather
disapp
zaf
##jam
decline
held
strange
000
##ind
arrive
sofa
##ir
##5
slade
ker
##ief
barr
rune
##cro
shaw
alejo
suffice
chimol
bus
thamss
tool
breathe
fashion
integrity
henrik
sharianna
log
franc
piss
distr
jhahnahkan
epilogue
german
##isl
epis
bau
treacherous
mode
penal
crist
election
she
stubble
##dee
stupid
silent
##ses
##hire
verd
kathleen
def
any
att
##rete
digest
##adow
##ple
breyden
##eral
ridiculous
chin
splend
isabella
siege
##anahan
beside
chestnut
type
##ap
hire
alman
become
##ula
##che
normal
elaina
attract
grant
nat
courage
daemon
behav
dog
##onto
assailant
##speed
tal
##oun
##uc
autom
##nest
maleek
abram
pouffant
continue
freelan
rise
northern
##10
perch
##hh
##enard
esp
finish
##se
accommodate
swe
flare
defend
pray
peyton
join
president
rouli
trim
failure
accomp
beren
furnace
puddle
bun
##llen
##iot
application
eh
explosion
##mond
buckingham
braz
advent
satisf
caroline
whim
##ical
gary
frill
linc
council
england
11
<
dare
afell
##cho
scheme
shawn
while
presence
##enn
wife
emotion
swipe
mak
henchman
entry
jake
daughter
howl
##ait
cla
list
bay
jodi
walt
selection
grigor
na
individual
wrong
##ule
symbol
candice
che
serge
seat
secret
spend
pouch
##ledge
crunch
##sm
##ady
haunch
torn
sam
brad
##rik
am
coo
##immer
##i
##ham
##rane
instru
farm
franco
debt
curran
cham
aw
lancourt
.
vw
emily
boat
certainty
and
route
quit
##reg
##abra
solve
tinker
##zo
bitch
sentry
amand
pisces
blouse
anonymous
fe
forthcoming
tomb
heap
was
marissa
corridor
trian
dece
##izen
sil
desire
gentlemen
##istic
target
goal
##abad
hub
stand
rim
scouting
mill
luck
susp
ethan
wayne
ignorance
##odo
saber
bow
sierra
##ell
##vere
parthy
##ness
folk
stern
threw
bound
##uary
dodge
goin
displeasure
violent
second
saxon
##ndon
kin
##sin
betw
mot
district
fig
tuesday
coch
##pc
destructive
##ach
fun
ms
ear
gift
nap
pedestal
su
indust
vert
lindisl
kercha
##au
already
astrid
##ton
math
bam
gay
tw
hanna
shine
##ruption
tobin
harbor
moss
approve
glas
jordan
morgan
connor
squat
million
mesh
eager
billy
mate
parchment
zab
corpor
ka
possess
five
steal
mudd
stair
##ram
tak
##teen
separate
plaza
grand
wire
stole
coy
grimace
dyou
tar
##cu
converse
bel
basin
chr
bal
state
joke
cigarette
consp
deb
dna
ro
##inch
first
cuba
accurate
image
vin
lincol
##zaq
##acy
dusk
##asp
##ig
##tan
labor
kojas
rakk
portug
liquor
yog
##rom
reluctant
accord
tielson
promise
twelve
cas
virt
reid
##ue
hel
##dic
orch
quesada
identify
dram
ira
service
dietrich
crompton
beyond
desert
frequ
barren
rec
tough
wy
whoosh
beret
cris
fount
jacqu
attic
corporal
discipline
ay
##atan
gallon
york
patrol
independ
pm
poem
pict
sovant
moist
grin
##en
discomfort
kurt
##orate
tu
josie
crack
##ena
execute
lull
mellen
knot
hecate
##line
caution
dante
broke
##iant
grow
difficulty
lun
pond
obelisk
planet
##ivial
grad
##peror
##ffant
adriana
marshal
##hhhh
##zas
fald
brenner
dest
fake
occupant
hor
##llite
tap
##inz
wise
##ciating
bell
madel
weigh
marie
knowledge
##umb
percent
trickle
vent
cram
salt
lzaro
xeres
muj
fifty
know
fle
mud
##rance
brass
##lie
madame
washington
drum
grab
ranch
cage
liquid
hi
ugh
cyan
coquenard
imp
miranya
withdrew
dom
##ont
assault
cot
ignore
shouldve
cluster
gentlewomen
orb
vulner
##venue
ladder
##mine
conflict
among
strategy
loose
handle
hist
anchor
lindon
les
admit
stal
dennis
disguise
##rew
full
##eve
debate
##ront
##vest
run
fil
gha
reck
crombies
itzli
audio
##onent
##words
ing
essential
enap
zo
chicago
gascon
ge
sebastian
##ostok
satan
resentment
coun
garage
magell
stake
haste
dor
efficient
report
trevor
##bec
hyp
rickety
ali
jungle
explore
cade
generator
acknowledge
mage
acceler
##round
slim
luxurious
beau
manor
satisfy
kinnard
gisele
boy
trash
insult
##ange
sang
precise
despite
cobb
presume
bleak
##fe
gabrielle
reluct
ll
pub
valerian
binoculars
because
role
hip
sank
protection
ky
heir
notice
skip
##onym
##sus
tr
milk
helen
license
manife
zapruder
hier
##part
sent
##iness
##uine
pierce
##rael
attendant
parnell
acktur
##ette
barric
##ruder
resolution
dive
##ien
cur
##ieg
sec
beverly
offensive
tackle
##bell
##kan
somber
coqu
song
razor
vow
magi
##ceive
never
dwelling
##now
sing
##oooo
##erv
dungeon
nay
alum
##wahi
##ary
dresden
etc
##eme
or
##ipp
defense
bladefoot
disk
trade
pike
him
bruce
clement
distinctive
conscious
vice
##ock
##scape
sapphire
##l
cush
##aunt
jud
trap
gather
##ites
kenshi
stuck
col
tail
appreciate
##aught
baron
zior
gruff
intention
##otl
gener
live
trudy
m4
amster
##bs
confident
hundred
primal
who
core
porch
middle
altern
##ms
panru
sug
##une
pow
##ulet
##urd
##ables
ques
disc
morning
##allen
captain
summ
##dys
tur
compartment
cassey
center
sun
bugger
##urg
brian
er
solid
marvel
##bl
##vious
##ution
##cer
##ember
##aret
hob
hone
##aborate
grass
asso
possible
naz
trunk
lawn
beam
initial
episode
however
thurs
breed
##came
bang
##oc
jia
##sel
gym
primary
mirai
vanilla
fleet
corvette
##chment
slid
press
sergio
##dam
occupation
lad
clas
lec
fountain
toul
gover
amazon
cadet
##raw
blizzard
ober
volcano
mute
##moil
##ublic
english
hon
upon
terminal
##olves
olive
##aked
elses
continent
discern
blog
maur
##ieux
##esar
discovery
heart
discussion
pers
autumn
obed
bubble
way
foundation
jaqu
##spective
##nar
##ala
jacinto
puck
gap
rau
##8
##ask
growl
allahandra
toronto
##far
bless
scalizi
bethany
ec
##ur
##ia
hydrogen
acquire
##ul
fflowers
23
inventory
hmm
civil
hoarse
intact
phrase
conse
##itter
medication
##ylar
clock
alf
##in
##tery
germany
bear
##ong
kend
bust
guard
##ina
##han
forrest
##acious
##stein
smug
##jord
shadow
bon
scar
horizontal
bit
inhabited
sol
foyer
proximity
portuguese
author
anhur
trail
te
pacific
ess
recollection
gel
gran
ii
##view
scoop
refuge
humil
theater
luca
noby
alter
son
rich
theyll
##rah
hart
bottom
serene
quint
rubb
##ross
sabrina
##omet
plantagenet
##ampus
angell
##inum
revolution
stu
office
tack
lecture
##lynn
monday
picnic
bauer
spare
exist
zel
##lo
terror
see
bum
193
delicious
william
negot
##pid
bo
theod
sax
tarleton
##iger
stallion
tok
:
said
settle
pristine
cedar
package
##so
fruit
bordeaux
##icip
##shi
congreg
treachery
claud
hot
niece
davy
cust
task
sophia
sale
##ounce
seize
customary
##tel
kolee
school
##iam
##ection
rend
fiona
##uls
##keley
surgical
ghaavn
##bert
##ific
werent
gar
executive
##can
open
##za
voyage
flight
path
##nard
eternity
##ping
ft
los
allison
tag
app
sor
zabrons
barry
krieger
##es
##cess
burn
##ology
bacon
ash
comet
priv
profess
hunger
riktenburg
albeit
stoic
ant
garrison
sleigh
orleans
detective
instructor
ascent
jenny
mort
villa
##dge
##med
hare
nix
univer
##oulder
##raid
sole
well
next
##ielle
sakura
candy
employment
receive
##qu
##eros
micro
covenant
win
obsc
tolerate
##olution
cath
fre
waste
kit
swann
quite
oly
medicine
convenient
silbra
creak
##ew
reichmann
murdock
instance
##arr
han
196
pat
add
post
even
purse
counsel
hogg
squ
miguel
ju
##cate
sarcasm
9
en
##str
fire
with
portra
relief
1st
##omen
##omenon
monstrous
##ote
david
##stal
##uit
mast
##rib
history
tyler
bend
wore
ball
aster
elegant
lid
merry
clothes
##erest
dominic
angela
##itious
##ston
rocket
legitimate
keith
hand
ian
before
house
sea
re
favour
trinidad
brake
ruben
mechanics
tan
chew
odin
##geon
religious
instinct
dune
select
yo
##onso
profession
creyson
impr
pur
bargain
##iour
afraid
gravel
##ount
##losure
free
hesitate
dism
lincoln
nov
##mac
treb
pav
##mpt
outdo
alexius
##gie
museum
36
sust
##ory
squirrel
glasg
##ops
dol
gasoline
hellen
##la
sky
thomas
robbie
##ooth
##cup
##retion
norton
gib
##ript
sharrad
spanish
##cuit
rica
journey
arth
monaster
##entier
##adia
particular
##eous
light
occup
##ani
coke
gradock
##op
brou
wait
cornwell
warrior
cathedral
wesson
child
topic
space
quarter
maklav
##enne
kenslir
##ode
generosity
probable
conc
trou
grove
fab
##osity
ident
vostok
paris
##tu
dense
hum
reg
jessica
tangle
important
##joy
solution
##antage
##bra
invasion
gin
formula
conyn
poke
##rible
measure
sail
dream
transfer
##ration
glove
name
clip
##urate
##ich
mademoiselle
thrust
freight
laugh
elain
bounce
stood
zeus
min
jun
term
ep
absence
miriam
gps
choc
rabbi
grim
##gard
manure
sphinx
##r
tin
##though
sport
may
trad
sprint
ive
rift
blame
flap
luke
elder
lever
##ull
eff
rafferty
control
damp
dev
cic
pilot
front
##rect
concrete
marcellus
level
material
transparent
factor
##onde
shake
eisld
discretion
righteous
starboard
##iece
foam
sak
##eth
##hm
employ
galax
##burg
opp
##cuse
##eter
kore
##ist
span
elizabeth
##we
abrah
outside
jhahn
raz
##ity
calendar
exasperation
packet
##gur
couch
forth
suppress
##icit
modern
imagine
frag
fem
##ad
niranene
train
##other
young
men
##hem
cale
notor
class
provide
##oon
##arent
vide
probably
fury
mont
boot
adj
monsieur
##atus
jolly
wagon
joshua
link
imper
##tala
barrel
deter
orient
paint
lily
##ek
sharp
magazine
##aneous
rope
stuff
##ree
##ian
city
mi
canister
katharine
hunk
emperor
von
strike
funeral
pac
valrek
ironic
cart
hesitation
teddy
din
smell
##shire
##per
##ec
##ista
auction
retreat
inst
##zz
mrt
hadlik
relax
natalie
19
policy
revivification
goggles
##ety
gema
worry
yelp
umb
carp
illinois
expert
shy
dirt
loop
48
##illac
josh
mariposa
charlot
welham
master
australia
##etts
thamssin
mau
tol
zeal
gray
##ute
accomplish
retr
near
prot
brown
falcon
err
indian
common
colony
##agnyn
##iction
compass
pla
##ctic
confess
man
too
white
whe
reign
mig
confirm
##cast
eve
ass
valiros
ron
device
tain
99
nathaniel
jeff
turb
seritu
exception
contact
trium
own
success
##acht
glen
nickname
##nak
##ded
marble
permission
##usal
ensign
aggression
##port
##get
excess
smack
prec
midst
##lage
henri
title
jar
slung
november
steer
tac
rou
colin
sever
genius
##ulsion
##em
gate
##akar
kenne
alexs
##thest
edgar
mare
##arf
##andar
##atch
##apse
linger
lapu
lou
host
adjacent
1
divine
mike
cake
##beck
wh
alma
##tend
invitation
prem
misk
##no
##pend
bone
hypnotic
##ene
concern
dimin
escape
tall
##ernal
meth
##aughter
##anya
value
##nies
au
domin
chest
intelligent
thin
suck
dutton
globe
gerud
ko
##rons
sabr
fant
champ
##wich
##ario
ukrain
industry
rendezvous
jer
semadar
counter
translu
motorcade
eliz
glare
spike
austria
##stic
topa
southe
flat
glimp
chalk
dressdon
##ber
letter
aub
##lique
dedication
ramael
yer
##ng
dam
cloth
monkey
cycle
scrub
ign
ya
vine
##ones
restr
elaborate
gise
utala
my
business
crombie
jack
##ii
peel
count
monastery
fa
carl
prob
appetite
mount
beauty
35
colour
manipulate
expand
##ption
famil
benjamin
button
##assin
olymp
human
platoon
##mony
bastian
28
##sole
motel
##ridge
hom
strand
rabbit
pl
##ar
megdline
u
eric
ghostwalker
smark
rue
continuous
meager
##eld
college
##ran
snake
consequence
volley
pet
##vy
haul
##berate
thom
decipher
nicole
fav
blink
squeak
sell
oberon
bundle
bolgobin
maneu
oklahoma
health
anx
their
appe
diam
sacrifice
sph
##inas
jorge
principle
hack
##asel
monot
mcg
academic
root
beat
detection
asmaria
stall
pick
monitor
examine
##ander
vulnerable
rectang
mous
signor
##15
substance
##ans
##jas
##ente
##illes
all
ire
complex
specialist
court
##ora
luc
az
marissas
mini
cam
##eeze
krieg
nob
discip
buzz
##olo
roast
##ata
cannon
ster
##ep
