segue
camara
purple
consult
tavern
bedouin
bush
nubia
thirteenth
pastiche
tabular
crucifixion
gangsta
jeremy
sulphuret
saker
fiver
autotune
legitimise
##quate
byron
tex
fustian
osmotic
grimaude
sym##
chick
inventive
staff
##net
substantive
sark
eschatology
contribute
immediacy
abrasion
##ive
archaea
digress
fleck
flah
terrace
scholastic
cemetery
repechage
grid
reginald
shrike
##ool
miquelet
imbue
wistful
console
##agic
conurbation
commonality
acclamation
inexperience
superintend
lis
ambient
dislocation
trinket
epoxy
##oke
hornblossom
grandee
specialise
marshalsea
spirituality
treaty
senn
emblematic
samadhi
coalesce
indeterminate
##con
be##
tertiary
ponderosa
initiate
gono##
equerry
emanate
##ice
biowarrior
##nel
##ldom
wax
agency
narmer
palpate
litmus
hafnium
bandana
torsion
hesitance
refle
convection
metaphysical
acclimatise
accumulate
swore
braun
student
farad
##rought
digitise
ungulate
sple
felix
wendigo
prez
drab
charitable
conscript
eu##
shed
georg
recapitulate
fritz
orc
duodeca##
cafeteria
ner
suite
reco
liminal
denunciation
bonus
slept
scot
murderous
recreate
liaise
deck
adduce
staccato
myxo##
pyroxene
sike
thaler
prone
reeve
whoa
nahum
jealousy
ref
incapacitated
fantasy
gaff
methionine
drear
jug
disputation
tono##
prevail
##out
kent
draft
parasol
logo##
sprout
##itas
radix
rag
demy
sulfide
riki
indistinct
##ss
moyo
phloem
logan
arrear
migrant
snape
guess
##cs
matt
mosh
felsic
sago
dominatrix
triple
enthalpy
critter
neighborhood
kinsley
egoism
hetero##
##rough
benefit
ergot
prorogation
chamberlain
tyrolean
cologne
midshipman
wicker
ange
##atory
an##
sceptre
snorkel
lepto##
sofia
susceptibility
incompatible
telen
laine
scott
ablate
frond
reveille
iphone
phen
cetacean
poly##
##lda
amiga
eviscerate
dile
vas
fugitive
dana
aisle
odjo
podcast
ptero##
##thys
surreal
##vive
defection
legion
done
##ford
beseech
juridic
poise
body
antigen
bildungsroman
annunciation
ev
bordello
taxa
##ciate
ruminate
chytridiomycosis
gull
beppe
mineralise
hut
vinyl
ablative
fanatical
adder
finale
albert
authority
green
vehicle
##hend
pigafetta
epstein
crowdy
leal
pious
shab
pout
hexyl
dc
clack
straightaway
pinnate
discursive
causal
damnation
implement
pharmaceutic
amidst
seal
mild
interfere
babe
renovate
sura
range
ursula
marceline
crewe
repe
acne
immolate
##ther
bearl
insistent
capriccio
desstina
assist
shrift
##rade
glitch
##ilt
consensus
toll
martir
##olation
solidus
heel
kaplansky
supplement
publican
gorge
graf
celia
##aste
flesh
meow
chateau
ayatollah
preen
answer
muzzy
liger
seidel
hooch
saturation
##pa
krige
##dain
during
terp
##alo
egress
lorry
off##
chlorate
roar
bari
aficionado
mid
mass
cir
pot
kettle
gon
magic
deputy
hay
hermalk
waterford
##olk
christian
tyrannosaur
webster
psycho##
arcadia
constitutional
ballast
mistle
yawl
adversary
turnaround
deteriorate
suspense
parthenogenetic
former
integument
nostril
##tron
clung
jere
oomph
expiration
pelagic
addax
quantity
pasteurize
scrutinise
opine
gas
##change
synthesis
shastra
knack
spectacular
shahi
alto
basidio##
##lans
kaya
wabash
carrol
geo
loom
connoisseur
impost
fal
oscar
vaquero
clemency
sulfa##
favor
des##
sundari
tend
tamaraw
tarpan
planck
dominance
warui
baculum
sentient
cata##
inconvenience
affront
hearse
fraction
sharpe
asmar
pastor
beer
litter
plain
arabic
gi
zalie
alkali
infinite
mamluk
gl
virile
long
turkey
cheyne
turd
addy
yester
##oud
sequence
dyke
rural
adjourn
##nor
heard
omni
gable
coven
chromatography
chromium
viro##
veno##
amrita
write
clonus
##ve
caracal
##ide
pneumonia
rebound
recoil
pharaonic
schematic
##wa
synoptic
##esp
claustrophobia
conquistador
dachshund
zeppelin
bob
interment
ishmael
rascal
fabulous
extradite
serpentine
paraffin
gabe
extro##
zoom
platitude
droid
caucasian
apocrypha
redolent
hexadecimal
indicator
snitch
hazel
gabriel
homepage
##ri
ult
alike
sift
res
cyclopaedia
imitable
boing
enigma
excellency
format
madeira
glaciate
##ough
fault
lie
faucet
thong
eclogue
tour
bein
itinerant
brae
turnpike
##action
rhabdomyolysis
##les
discre
hai
side
##ike
wrath
cirrus
nip
hartman
mawk
quanta
ileum
mend
galleon
heat
pterodactyl
convulsant
waft
improve
raya
junker
litho##
kitchen
tanem
assail
dimetrodon
wom
##avel
solo
proscription
summer
flit
moond
ballon
stutter
lingua
gondola
tegmentum
euthanasia
banelyn
solute
oxidative
hotel
weasel
lino
shuffle
protein
eliminate
depository
delve
repulse
remand
abominable
sorority
predict
##rel
peppermint
lien
tradition
he
vancomycin
russian
evangelic
playa
chondrite
synchronize
speech
fertility
fergus
##otaur
ostracize
phosphite
shook
connect
stoop
radiant
poetics
johnnys
abbot
##ias
paleo##
plesio##
charles
duo##
##ulture
gallica
placate
exponentiation
dynasty
cornucopia
hamlet
chia
brilliant
diptych
diversify
physico##
ligament
slit
constancy
reattach
phage
ammunition
lollapalooza
deluxe
slight
rumen
theoretician
jib
drew
incisive
basque
tapestry
synovia
sur
anthraco##
##verty
burg
lyo##
can
delimitation
magnet##
customization
enforce
memor
fusiform
impart
oz
cocoa
##ment
marina
baptism
tutor
khagan
chance
snort
animal
world
courant
pegasus
upholstery
qigong
chupacabra
strung
cauliflower
##thymia
rapt
nai
stagnate
fir
portfolio
mali
rig
ug
carbene
formative
cipollini
mightve
##ys
alco
chapbook
hypoxic
pestilence
rum
earl
jam
carucage
gulliver
poppa
~
hangar
##illy
doctrinal
catal
diametric
woven
debutant
tropo##
granule
daisy
intoxicant
hoochie
elope
cinder
gust
frankie
hake
tai
##rogen
lip
syllabary
hypothermia
chinook
coach
penta##
pewter
warm
phase
tro
##un
cox
spr
##t
robes
geronto##
pubescent
obese
mannequin
frock
barter
default
batho##
stephanie
##tar
por
pogue
stack
negus
endonuclease
papist
cubby
adequacy
hall
regress
jurisdiction
##our
moust
laic
quadriceps
tatt
lear
sensuous
hooky
rug
trypsin
hustle
contour
magister
conspiracy
tangency
speckled
vibrancy
rather
cera
jap
plume
mongol
convolute
primordial
fragile
centi##
tumult
profusion
chimney
leprechaun
voc
tricho##
calamari
pendragon
stonemason
ramn
##dy
gordon
webisode
archetype
hipp
around
circum
##iff
verb
drift
gland
tongkonan
tuzla
erg
sassy
michelle
earth
nerve
persu
brachial
wyoming
nigel
undie
compo
saccharine
htt
entrada
giggle
book
iodo##
futurama
venta
consulate
infante
receptacle
##aber
pooch
shut
sphincter
##allel
deflection
campion
think
speciation
stam
gully
cartouche
medico##
##rative
sink
rule
fike
many
sutton
##
bikini
ganglioside
##ag
legit
crandall
onyx
plastic
flava
facile
steno##
pinafore
steinbock
carny
lettre
allusive
##cular
bandit
stigma
doctorate
perform
pediment
feminine
kamikaze
##ita
abbess
vacuum
capacitance
glutamic
crass
mimosa
perpetrate
molest
##kin
beast
stove
consist
dunno
spar
scaffold
gasp
valorize
addendum
cuvier
ignor
boba
blasphemy
fess
##iatric
becker
tress
hern
eir
vagina
oxy##
proselyte
malaco##
wattle
diaphragm
ohara
erotic
saskatoon
passage
vines
foot
##wood
savoy
mongoose
thatch
shonda
rave
keir
rappel
kurti
subtile
ronson
spay
element
desolate
##are
wallow
polonium
miasma
tuatara
habilitation
cameo
transponder
uretero##
jealous
banyan
punitive
ross
spinney
os
pair
gorman
alveolus
peloton
darn
asparagus
limo
brindle
bonsai
canine
hysteria
disjoint
##erable
mano
##hall
reciprocal
chasm
lung
levant
vagabond
battling
belenus
russell
erection
barnacle
keel
hypoxia
ideal
fellatio
fusilier
plate
enig
notion
##atu
physician
ruthenium
analog
borne
dyad
defiant
tariff
shikari
sis
litigate
familiar
nifty
thalasso##
doon
outboard
moat
exit
halo##
jape
tyrant
boob
terracotta
propene
differ
##uhltli
feast
rafes
phantasmagoria
quar
complement
eco
apportion
fau
decease
vain
chara
abscess
##acular
fo
thieve
1963
disrupt
establish
zone
chateaubriand
gnash
guarant
joinery
brazil
atticus
sinecure
##theca
##ki
benedict
sir
caboose
pisci##
matha
victoria
exquisite
sacral
expose
whoops
entity
bewilder
ew
##ork
utter
bate
##arico
accrete
afghan
baroclinic
##uffle
##30
ia
prophesy
grand##
nash
muco##
creature
bah
napoleon
prescribe
tab
##isc
heartwarming
anarchist
##eg
bryce
curfew
warsaw
gretch
richards
ny
ebb
lyse
##hearn
journalism
swagger
wurst
cathode
##sand
pointe
hele
yoshi
lock
cider
quince
altruist
chapter
crompt
ichno##
hahn
enumerate
smiley
nacelle
wale
representation
conjugate
zenith
statics
nigh
gregarious
colorado
laurence
row
feel
cassette
brackish
cyclopentadiene
incline
phenomenon
saphena
controversy
rough
taxis
truffle
mega##
box
tabla
cordyline
cingulum
chutzpah
passion
kay
het
alumina
ramp
enteral
##h
sepsis
capitol
org
auger
##cery
tatu
theorise
obstinate
shack
##scope
perineal
exponent
quoin
auteur
jinn
titian
mule
tares
constitute
ceremonious
evangelist
commensal
distil
condemnation
##ompt
chate
certification
smith
iterate
timid
complexion
mathematic
nether##
scarab
tunic
ottoman
fusoid
merlin
whittle
harald
molten
acc
zinzabad
mazurka
scorch
village
geodetic
udder
cleg
afford
physiologist
##iatry
gunter
fibrillate
atte
##grapher
##ume
##gant
ingest
##edral
contemporaneous
##oe
wow
workfare
hood
dishonour
vivid
bass
constrict
asian
wallaby
ford
ordinary
hystero##
mari
cordial
tongue
gabes
##idual
artiodactyl
fricative
royal
swine
mcc
hollow
adams
##worthy
offside
culpability
mutans
phi
raze
##ayl
rotunda
candace
agripp
industrial
##art
conf
joey
strangle
diligent
exchange
phoenix
spatula
aristocracy
bandar
process
spider
##gal
lane
matron
cyclone
subsist
inkle
monotonic
kitsune
secular
hamm
pretence
gal
rept
opium
dogmatism
convulse
transpire
riprap
br
plod
arizona
oubliette
astrolabe
bleat
drowse
defensible
ulcer
kick
prize
approbation
##fort
basilisk
dauphin
aileron
precentor
nautilus
joaquin
spl
domination
ganglio##
membrane
canadien
vire
menu
swenson
moment
convert
labyrinth
tonne
bourgeoisie
abstruse
cicero
arthritis
saltmarsh
jacket
groin
caravel
countermand
##nate
halsey
gestate
julio
irradiate
pimple
branch
quahog
confiscation
##topia
som
##tha
coelurosaurian
adam
hag
brus
vl
dizzy
nic
anthropo##
hymenophore
rind
queasy
swoop
buttress
##hr
doggystyle
##rrhea
comforter
saturnian
foy
waken
pincer
uber
empathetic
activation
lodge
##enger
jonny
weed
dozen
uh
jugal
spo
morland
e##
psychopath
treville
vestibular
samara
thymus
spouting
antithrombin
assistance
angelique
##iana
dro
rose
vicar
orison
venge
obedience
levo##
blossom
neoteny
linguist
encore
##ince
##umber
##ett
scale
wrought
arthropod
promotion
cairn
immature
sok
export
mobbing
north
prepare
viet
than
philips
##uckle
vest
cozy
entitle
tre
marine
leav
brassica
guru
expedite
technic
calyx
gooch
peristome
psycho
relativity
##ros
anise
memorandum
yellow
vessel
torture
stratagem
dought
ouster
ital
cine
##inge
carlos
glucan
shelves
yate
coriander
maxwell
plaisance
support
holographic
elm
meander
purdy
basi##
jimm
ecstatic
border
cosmo##
##lee
napalm
##fication
##wick
dredge
complicity
prat
study
mime
influx
robot
subscription
dispose
##olent
advert
tahr
access
orchestration
kilter
feasibility
kiki
tot
##ke
metropolitan
risk
concert
menorah
capacity
ranchera
serval
senor
rhy
cheza
lesion
walnut
trill
pragmatism
##rot
transcribe
v
froth
00
adorable
motorise
tyrone
##ey
sat
treponema
administration
##ndar
/
oviposition
precious
ling
swash
cervix
hale
jute
phos##
sab
wau
usable
emplacement
##lish
hy
werewolves
bursa
serpin
theodosia
linoleum
trod
chloro##
beal
##ramid
digitigrade
thrilling
rectify
gung
##ank
dengue
jinx
crossover
##ick
sanitary
##lf
##ain
##ium
scatology
clyde
essence
bebop
plexus
raseed
##zk
digression
phosph##
ergative
absent
cutlass
relegate
conceive
anarchy
rhythmical
victual
crenelate
##al
dispensation
regularity
abstain
shakedown
indaba
some
focusing
##well
celestial
orbito##
burse
string
announce
beaver
jink
depiction
basil
ste
primogeniture
comfort
hydrolase
radiative
nucleophilic
companion
those
schmooze
kid
bonacieux
premiere
##ordan
perpendicular
##ulate
shawarma
defame
claimant
selva
teno##
scalp
russet
##el
abdicate
yang
epithelial
flexure
okeh
missile
west
ha
hash
whisky
leopard
pork
codification
dagger
##e
blue
appoint
ski
##ftrack
bigfoot
minimum
medium
##aki
ruffle
plantag
recess
manday
##erson
descent
kerosene
trousers
dramatist
substantial
together
wilk
concha
rheo##
prank
retract
phylloxera
myotis
squall
fash
academy
quoll
cupola
courier
##mble
destiny
astor
syair
wo
interf
fumigation
intellectual
refringe
dada
hokey
carden
pardonable
glace
sprightly
ariz
motto
munch
importance
valency
##lyte
slink
strive
democrat
gish
homo##
prostaglandin
patience
cunt
build
aero
glycine
repel
chuckwagon
new##
plea
hyper
polje
tempor
norm
##ly
rain
mam
churn
ring
ard
romney
sprocket
##ili
anterograde
misterioso
declension
##lu
simper
murti
divisor
parsley
duffel
pilus
vig
abhor
acropolis
collateral
bibcode
dentist
diverse
cheap
excursion
architecture
piller
mousse
##cony
clothe
dude
legal
patron
republic
mortuary
affluent
meg
plump
mi6
combustible
extravagant
resilience
terrible
israel
sill
baggage
barbel
cumulonimbus
mercer
crisp
decrement
obstruction
sign
latero##
indict
native
mah
300
##iente
pantheism
peptide
romp
amylo##
combo
hymenium
synchronise
[PAD]
chloroform
crossbred
transcript
nauseating
intermezzo
itinerary
ciliate
guarantor
intend
auto
reprise
gizzard
ineptitude
eventuate
exaggeration
negotiation
cane
swept
non##
ali##
quota
draper
infusion
saltire
pyr##
einstein
buggy
sagittal
salinity
sensitive
cultigen
pied
canid
laughter
zva
occur
butane
infantry
lenis
shoot
node
##phobia
smolder
dither
##weg
crey
scorbutic
cannabis
##sion
archeology
paramount
infinity
aeroplane
dysentery
equivalency
astute
crochet
phlox
imputation
appro
naik
want
##iny
jhov
stilt
eme
cowan
##amon
monger
valentine
instantiate
dv
superst
dissonant
cappella
amphitheatre
##bon
clair
exhume
asen
vacuous
populate
urie
transmission
tacit
##rable
bludgeon
mtdna
garran
fluor
childer
special
ilium
dulcimer
widow
geometric
avery
irrigate
meditate
ambergris
ana
hobbit
sugar
natives
gamete
mure
asunder
decapitation
vaca
hermalkin
meddle
blush
babylon
philanthropic
mansard
selkie
ordnance
nala
vagus
##lson
##utenant
trigeminus
rit
gonad
mama
anabolic
electron
projective
yan
pineal
##asive
stadium
##ited
anaphylaxis
legible
irritability
menagerie
##quent
imprint
candidature
algo
acute
hoof
osculate
|
bashful
imaginary
specific
axiom
drip
thirteen
iv
epithelium
heist
scape
ween
yard
adjust
visceral
disclose
lez
upfront
template
immediate
chancel
chauvinist
pri
musculature
arctic
receptor
microbial
cotyledon
investigatory
ts
disg
penetrative
herniate
##bble
threshold
plummet
parentage
authorize
##ile
##bb
gymnosperm
chanteuse
bailey
glaciology
bellow
petroglyph
ulf
chiffre
worn
kalamata
shrine
track
predispose
joanna
##chester
aluminum
fizz
##ric
augment
matri##
tsar
##ipse
barrow
instigation
trope
pas
ricky
flood
cumulus
axle
competition
crux
lan
mussel
jive
jag
dropsy
finn
apothecary
porbeagle
affidavit
banksia
crab
prismatic
pier
cote
fangle
golem
##ious
uns
destruction
huff
nu
dowry
danny
destro
demeanor
decision
cant
dull
willey
melton
mayday
kinase
kal
thrive
preside
peregrine
toss
satsuma
fought
parkin
pharma
mod
limp
appl
travesty
aggrandise
elicit
orangutan
belter
cauldron
humiliate
pleasure
bu
##gent
rebec
infatuation
war
fend
earnest
amenable
ex
ursus
incredible
spatio##
afric
result
solder
ming
torosaurus
cony
went
lancet
keratin
grew
sarco##
##ician
sack
angry
bizarro
mr
##ver
##ification
jeep
umbrella
mahatma
synchrony
steen
liquefy
move
##cient
hove
boult
ductile
oppos
elf
##iii
gradual
assembly
guinea
sinister
imperial
garbo
rann
prehensile
basket
involve
##d
typical
mediterranean
betatron
conciliar
adduct
##ld
fairing
faction
valerie
##nant
prayer
extend
scrupulous
research
sen
##mont
souter
liberator
impeccable
corrid
half
brane
rebuff
ickle
katha
truncation
awhile
padre
##unge
cowardice
sabre
nesu
cull
##elisk
presumptuous
burl
specimen
sultan
gypsy
rodgers
gundeck
##idable
corbel
batik
simple
##akon
##ent
arielle
aguinaldo
coloniser
cysto##
##derm
correspondent
pupp
amidite
remonstrate
dumpling
feudatory
exemplary
charan
syzygy
##lusive
hedonism
amphetamine
scare
doc
##und
kakapo
learn
##lis
moderator
gloria
matriculation
ethernet
deface
14
invigorate
philip
sandal
decree
barbaric
taste
##por
foliage
lz
zig
singe
underne
callbeck
sore
wulfstan
denton
manzanita
adolescent
duodeno##
tich
tiffa
yogini
erroneous
##iona
rickshaw
diminutive
coronary
##ipper
sorel
bordure
bede
katana
jason
geno
diss
##ese
fore
majid
slain
marxism
ber
bud
glacier
pyelo##
##cha
chico
du
trepid
swan
##centric
broom
##ousine
consistency
censor
milieu
reggaeton
kae
dumble
##iano
porridge
wrest
a
nonplus
edge
torrid
sloven
cabana
##arge
##uck
superciliary
merrod
fluor##
proconsul
remnant
prominence
maki
centralization
chymotrypsin
pita
##ourage
mural
truss
compatriot
##fuge
lon
stem
pica
rice
deist
marsala
cybernetic
satiric
furn
peseta
embark
nod
veronique
asteroid
vel
2013
geph
toccata
cantonment
camber
impose
vesicle
razz
furlong
fallacy
horn
flicker
proceed
kulkarni
brilliance
sergeant
affluence
exper
freeze
##chel
##0s
wind
rugby
wolfram
cover
age
annie
ext
hann
abundance
platt
dawkins
cavort
rigby
attrition
choreograph
diane
##wide
escutcheon
crucify
stimulant
citadel
shinobi
mammoth
visuo##
wheat
##nut
purr
turgid
tempest
stagnant
gallant
dissolute
barcarole
fain
34
hmmm
when
stot
effect
bologna
proteo##
prosthesis
compens
en##
fallow
sabha
hollywood
##strate
impetuous
tact
paddock
turbine
##uss
##couver
clef
sammy
plaintiff
pentameter
entropy
gladiator
resolute
hyalo##
argus
karate
legend
blow
meister
exc
vapid
ouroboros
slang
accretion
gunk
affiliate
##dom
sverdrup
appreh
ip
quantification
amass
judicature
rattan
mobilise
suit
wrist
filibuster
horrible
jurgen
seor
fondue
lignin
cure
##aylor
inactivation
video
ins
battery
duralumin
decency
embellish
bloodmage
concur
xun
poop
theogony
rotula
chef
quatrain
ventricular
astro##
mediter
##itis
penser
mur
lubricate
millet
##phy
quiet
lime
session
militarize
khanjar
trajectory
3
step##
bingham
burnet
laud
were##
roger
diabolic
hoya
smoulder
chandelier
##ays
kaiser
moonlighting
tyrol
swim
multi
umpire
gump
poikilo##
##ikt
down##
ode
goshawk
police
parson
uniformitarian
##ten
ly
publish
specious
dass
finger
warlock
fund
adequate
##plegic
parad
adoulla
yerba
lin
stumble
punch
squeal
zonate
imposition
trace
brigantine
entente
cognac
ethic
lockdown
penitential
##aud
succour
scoutmaster
plebiscite
internet
renounce
sanctity
laurel
parable
confidant
release
rigor
carpo##
insemination
mica
might
exuberance
puy
prove
condensation
##ibility
blind
andy
source
anch
has
sera
derelict
##assy
egypt
triang
trough
fluency
mao
witting
cellular
logic
aimee
##rella
raceme
indulgent
fret
cyclic
dishonorable
catastrophe
cartag
torr
parboil
pungent
bloc
esh
glycero##
##pri
leblanc
neil
##ow
empire
esther
bener
inferno
apiary
wheelan
tiffany
francisco
pajamas
trachyte
burr
drachma
clostridium
ghee
deficient
##ogany
degeneration
sharia
terrestris
##bre
commerce
pidgin
lottery
##ortal
nir
combatant
##inct
hadrosaur
tenor
sardine
san
amor
juniper
sect
rescript
aphid
agama
ubiquinone
noon
farinaceous
talus
aggie
cask
broderick
won
##ombies
tease
elkano
abu
bangkok
conscience
hopping
thorough
s
sedition
sy
glebe
enumeration
clarion
vali
plan
raul
appeasement
barbarous
recuse
evaluate
chug
impede
carc
38
neath
sabotage
bier
mattress
##her
canny
oceanographer
normative
castellan
reticence
cellphone
far
bouton
zerg
gash
monocot
turnip
impromptu
impair
feldwebel
dichotomous
trellis
nemertea
partic
##rose
debar
tigre
affectionate
current
inverse
tait
pig
irene
gomer
doublet
teen
fluoride
##ital
eight
bread
tate
screech
##olt
theo
gastropod
attendance
cos
whisper
reside
sch
prest
luce
implicit
##oy
brachio##
flay
tarmac
##ards
bevy
square
##ico
margaret
##9
foretold
imino
wallet
pete
phoneme
gell
intelligibility
possibility
crosier
novelty
kolkhoz
inebriate
inform
wre
prequel
floret
contemporary
leitmotif
wave
arrogant
seventh
tera##
saloon
new
sahib
caligula
burden
maturation
##zzy
walla
meng
slay
volatile
imagination
nine
clerk
triumvirate
gout
determine
springbok
vallin
##ins
playoff
levitate
##udge
analytical
em##
lackey
explo
arc
kee
vindicate
annelid
##nik
graptolite
anamorph
##quire
gambit
baksheesh
phat
eczema
girder
pancreato##
shrill
##ot
diagnostic
granite
radius
electrocute
macho
seclude
diazepam
id
festoon
flagellum
wes
##erence
ack
rondo
friedrich
premier
cem
fifteenth
wigwam
bega
dolomite
blade
mullet
turmeric
entrant
domine
ahead
satisfaction
adays
symbolise
varicose
##ere
monsoon
##etic
geo##
snout
locution
winge
allocation
squish
tyding
nath
hard
torque
hermaphrodite
laudanum
dawn
##lor
proof
cola
daub
jackal
incubate
##orescent
harp
pattern
spunk
got
aye
drape
week
at##
worst
##gre
nuclide
tallis
sacrilege
candida
facetious
conformism
canter
convey
judo
diatom
##ry
massive
stipend
coordinate
helio##
soon
nah
juana
brim
clark
probabilistic
theodicy
remember
hoopoe
elixir
brome
homunculus
burgess
whiz
calthrop
osteal
soap
bryozoa
replica
deme
bubo
jackrabbit
porno
inside
##izar
astralis
effendi
advowson
galatea
constraint
naff
transgress
##astic
cou
allosaurus
boro##
seditious
##ka
##sequent
jewel
vella
command
mahogany
imperative
self
wank
wreath
kindle
pontoon
surreptitious
mango
wade
dramatic
particulate
forme
standout
malice
##avity
ligature
somer
confront
congregation
##oof
nanzy
knit
nihilism
entablature
proteome
dutch
buzzard
ure
gain
sylah
inane
botanic
choano##
tambourine
none
embryo##
cradle
##mad
tibial
haughty
##pause
fete
condition
cist
occlusal
function
vibrate
minstrel
creek
ned
vicinage
##ama
whose
##manent
abseil
sprite
swear
emulate
hypocrite
counterattack
##iber
demolish
castell
abbe
zoic
verse
##quest
promulgate
scathe
##actor
debye
parapet
tumble
todo
adobe
tore
decoy
##uch
clique
wage
oxy
sensible
concentrate
diego
mcteague
andante
crib
celibate
parcel
curb
fossa
##logic
calci##
modell
acetamide
relish
heritage
jurist
tutorial
dup
built
conformation
damn
favorite
draconian
caval
presbyter
##ensible
seduction
##nal
huckleberry
pound
sim
gu
fathom
prude
sieve
transfusion
guillotine
y
consistent
swallow
testament
capitulation
semaphore
locke
frisbee
##ardon
deodorant
vantage
remediate
##coccus
cuckoo
extra
mice
frenzied
muse
bodice
shr
putt
savvy
des
kir
cinchona
moe
lease
vast
busy
idiomatic
cous
docile
bobble
bella
rockaway
umbel
excavate
##ble
devastate
warble
##ysse
dissection
spectro##
herb
diabetes
saline
leave
vegetal
elector
marquee
suet
mikado
##anoid
pic
meyer
leghorn
castellated
commissariat
cin
organo##
balance
inquiry
mustard
traff
hazard
sherlock
noise
bloom
dorm
newt
recent
corbeil
would
editor
pole
gutter
agricola
artifact
nog
immerse
heroism
alap
flaw
castrato
phantasm
sonorant
camaraderie
adolfo
kerat##
waggon
psyche
disparity
kimura
naso##
broch
assemb
17
&
staunch
linoleic
austenite
tympanum
columbine
##ssible
sutra
curren
##scent
winkle
o##
elimination
rhombo##
blew
hud
##athon
picaro
unicameral
silhou
gummi
abjure
natick
lumbar
feral
enfilade
tenable
tascela
dewan
jettison
subjection
norweg
swashbuckling
vilify
effeminate
sais
pomegranate
trove
garland
haakon
keravel
tentative
papal
##az
simplex
##illa
threonine
dessert
riad
carnal
diastole
gilbert
weep
recognize
##stome
percuss
john
##asm
deform
ethmoid
sunder
davydd
transmigration
##igne
sapp
aubergine
elegance
moder
##iles
rey
hind
badel
precipitation
ochre
quaint
actuary
anomaly
phoney
karen
hebrew
loft
proprietary
traction
tarpon
crag
frett
clientele
floor
commodification
logistics
parenchyma
viaduct
mope
spec
##bury
rachael
canaris
turkish
vigilante
aries
##ub
aridity
##for
successive
cancer
rouge
audit
ribald
habituate
fieldfare
##awk
curie
martinet
denigrate
mm
##ility
nope
brandon
day
tow
##ougal
badelgard
jamaat
stereo
##rich
sprig
apt
reckon
panto##
exhib
postpartum
chromato##
haj
pandemic
flabby
adenosine
society
mephedrone
pomp
lingo
puritan
padma
angina
scuffle
prelate
eva
immobile
##cardia
hydr##
derailment
famadihana
##ged
acetal
mish
breve
spirit
odys
flank
gastric
patroness
opry
##cil
western
scarlet
luxur
fern
##moth
##nge
enthusiast
lingam
onion
seed
chaim
psych
rectangle
planar
onium
recto
hatch
##luence
pudding
ghazal
calamity
cabin
kop
solvate
atopy
opacity
cellulosome
view
juarez
##aster
recommend
antenna
obedient
collide
brooch
sneak
peachtree
unanimity
gag
rostrum
import
latter
##ontal
clarence
struggle
sufficient
rio
conform
thoraco##
acoustical
heroin
bellows
##lamation
subsidiary
vegan
angelshark
drag
person
oro##
empathise
aga
labia
artificer
compute
payne
fife
confluence
devastation
sw
slowdown
weeke
abel
army
##treme
zep
technique
oleic
macron
stubborn
alias
surprise
challis
cheese
wand
##vir
velar
catatonia
pater
strap
##zie
violence
##ika
##ess
mendeleev
waterlogged
butte
lucrative
lila
varsity
es
##olic
humour
dissension
resection
cavern
##ost
enunciate
##ana
cuban
##cano
split
travel
vertical
##centrism
derrotero
infibulation
repetitious
cuneiform
entomb
iconoclasm
anaphylactic
davit
moor
deuce
salient
they
##iselle
palate
fanbase
pinon
step
storm
digital
bib
auth
mariss
gaur
subdue
nev
##poiesis
##iend
behavioural
kilo##
dinar
der
definitive
sprain
asthma
regalia
terrier
modification
indians
metaphysic
##iang
radio##
dway
reticulate
season
negro
tit
merri
carnival
##lla
demarcation
emulation
gaussian
diastema
inept
impale
scalar
gratuity
consummate
acrid
chunk
kula
euphoria
acre
vid
woo
inversion
posterior
patina
sentinel
uvula
gat
riesling
resp
swiss
affectation
back##
enquire
wicket
cross
nause
##ez
enthusi
carom
plaintive
##os
caloric
sought
inclement
less
palimpsest
chimera
adiabatic
withd
lama
saus
moroc
couture
acetylcholine
hypnotist
horrid
dash
striatum
arpeggio
objective
procedure
clint
mizzen
sacrif
methyl
kidney
xylem
liturgy
theist
dorian
proscribe
ad
dw
klondike
brandy
same
opposite
urano##
discontinue
graph
maize
viper
indenture
irascible
base
##izz
suv
resplend
nottia
cackle
heresy
eigen##
##tur
colloid
luna
iterative
mis##
tirtha
keytar
thir
elkan
courtesy
geezer
petard
narcissus
date
juice
generous
scruff
neptune
bowser
taraska
hydrocephalus
##glossia
fourteenth
##roc
donat
rattle
porpoise
rebut
integral
cabernet
crockery
transliterate
so
maw
repeat
islam
rapha
surgery
ariis
##orce
retail
insinuate
jor
privy
myrmeco##
intercalate
speculative
citric
secretion
plank
oration
sluice
liable
##fist
nocturnal
##istics
chrono##
muffin
defensive
interruption
natasha
anil
bumiputra
privatization
reim
patrick
corrugate
tamy
supplication
acetabulum
thered
##phily
erode
columella
loco
picked
asbestos
equivalence
coif
goad
ammun
eyot
##s
retire
valiha
shutdown
##idence
passenger
damsel
tripoli
dementia
tuberculate
prolactin
moot
hence
wide
##leen
hedge
detergent
##rica
oxa##
leotard
hold
bark
dempster
cameron
cory
travelogue
immaculate
##arse
independent
appetize
hun
mogwai
##epend
sit
pear
osiris
interventionism
vigorous
serpent
##mber
carnivore
palatability
resistor
quietus
compound
slap
sass
piece
simpson
sc
stick
menace
sovere
apartment
gendarme
clot
amity
mongolica
##shift
wel
glutamyl
trillium
molestation
sorcer
manip
mew
by
assumpsit
##iver
centaur
trochlea
gazette
##itu
##the
peen
dissidence
##olm
neela
economist
manhattan
guardant
vitreous
acoustic
seleno##
degeneracy
##azine
stil
attitude
virgin
kosmos
alita
hiss
disto##
machination
reputation
hoist
inflorescence
##st
pellet
hyrax
##bo
div
quantify
blasphemous
econo##
pyro
magnol
teleost
feeble
rosary
si
shad
revelatory
osmosis
falconry
reek
embolden
mat
consc
sphere
admissible
amendment
armiger
##bie
interminable
piratical
prospective
dow
dwell
muster
##aris
mihrab
##ip
band
feline
loggia
jiao
bulgur
conven
tune
cruck
analytic
##iest
powder
mechanise
hank
cove
volt
pleat
##6
halberd
main
precog
manny
ophthalmo##
magnate
deposit
raptor
cafe
cirque
phoca
sturt
salm
ahmad
wen
savor
canard
glacial
locale
rese
derange
bowl
carjack
cue
inborn
style
web
jail
[
why
combat
thatll
##oir
scaliz
supplant
sheva
urn
ness
shay
agent
ee
oriole
##hrer
citys
illegality
dah
presuppose
cole
platypus
tarry
warre
lidge
integrable
##cott
conus
killigrew
belvedere
martello
douse
##eep
wrack
laden
hypnot
gluttony
musicale
profitable
nav
toe
##vell
denue
dobby
differentiate
femina
cognition
bald
lass
cadence
wigeon
french
whiff
jump
knuckle
scorn
##av
alas
til
##bean
identity
minute
kill
##gas
accost
pinion
fi
quilt
gastrotrich
baptise
sacred
biosynth
##iv
polarise
decrypt
intelligible
parsnip
sprue
selle
vacate
##asure
acclaim
condense
castor
olfaction
recompense
cit
intel
heydrich
budget
outcropping
lemon
purview
pantomime
maintainer
coplawyer
jes
inevitable
scurvy
fitful
nowell
gleam
aunt
##mend
enamour
geometry
##eer
superplex
convocation
pure
collegium
hartley
gunnar
distillate
dormant
melody
ridicule
l
basidium
##ination
##burn
fed
mercedes
##iposa
lectin
equidistant
seduce
tawa
ensue
proscenium
acanthus
one
faience
oeuvre
poignant
stew
##acabra
archaic
ble
tenrec
clap
sassafras
subscribe
opto##
##ase
stolid
horse
false
slog
##ature
xenia
git
deke
##craft
corrective
mystery
infection
kelly
kayak
constructor
guy
berk
domestic
##tropism
##ne
ceiba
vibrator
cantor
prorogue
delic
resume
lew
halogen
tantalize
hornet
fiduciary
debatable
bellhop
valedictorian
reggae
warwick
hap
alamo
agito
paralyze
latitudinal
lassie
glossary
jackhammer
belt
swamp
slate
rebus
syllabus
donjon
nimrod
affiliation
pipistrelle
agile
altitude
mochi
rajah
robin
deploy
sum
gymnasium
intaglio
bet
javelin
tee
depute
##phagic
##anda
dosage
campylobacter
ovoid
intoxication
##mp
mohawk
narco##
mediocre
inlaid
reconciliation
pnictide
18
gig
heraldic
##g
brynn
needle
bribe
ie
rectangular
humbug
portico
caterpillar
bugle
emigrant
conciliate
quart
veritable
insignia
civilian
vanadinite
tsaritsa
det
kole
down
sully
strikeout
ratis
druid
voluptuous
past
wry
viaticum
legislature
intelligence
proletariat
stigmatize
converge
foist
wreck
stab
catechu
kins
necessary
prokaryote
tunnel
reflect
choral
couple
zaire
bray
offer
##proof
lifting
that
apoplexy
spill
generative
frugality
agne
##style
ubiquitination
carrow
symposium
tapas
freeboard
flax
flag
cantankerous
permissible
biowarriors
##ik
se
begat
tsetse
oread
ceramic
roch
hara
serow
hairspray
eur
dexterous
adjoin
##af
jenkins
noso##
good
ganondorf
pursuivant
inactive
ambrosia
comprehend
calico
wara
meat
##roud
valley
destr
volta
huia
vlog
molluscan
archimedean
ramification
callum
part
cartilage
meridian
amongst
equilibrate
tribe
wannabe
##anton
sulfur
kookaburra
frank
evil
##ssom
noddy
inca
aesthesia
arm
shoad
udon
peri
provocative
potency
saxenburg
taurus
ascertain
organ
egg
comte
suvan
convoke
sclero##
flehmen
chezare
disappoint
saprobe
##zan
word
moll
##sol
bambino
##enade
maid
septum
beautify
##oufl
nur
##spermy
agriculture
##owl
tray
jaz
raft
magist
alfred
defy
ovation
rana
durbar
pearl
prevent
salary
amateur
pliable
echidna
bream
deci##
alumen
gothic
preponderance
agnatic
cholera
dich
ricin
stream
sure
motocross
ambul
jaeger
meditation
cyl
implicate
bantam
canton
lotte
hoax
led
dresser
credo
alban
attribution
acro##
##allow
restaur
motorbike
bigot
provision
borg
volador
dislodge
paragon
swerve
implant
defamation
abdomen
fresnel
phantasy
maund
aff
##app
transition
pastoral
colonise
recom
columbus
presumptive
francophile
##atonic
asset
plowing
karaoke
convention
tonality
subordination
merge
##cept
tonsure
statuary
##ival
riposte
evangel
snob
apico##
bike
pamp
liqu
exhort
prospectus
amniote
androgynous
locomotive
barret
plonk
contravention
libido
belief
##ottom
aquifer
##yne
puss
ganga
glint
cartagena
oratory
##orm
raleigh
turmoil
norma
savory
bernard
peridium
sherwood
by##
lintel
wonder
affair
harmony
dole
canad
habitation
bac
meningeal
lemur
trial
yacht
fractal
monren
chesterfield
coromandel
trammel
fro
semen
##ful
##graph
pecuniary
clench
fescue
turbulent
event
sprang
pdf
harangue
cower
rowdy
gopi
leap
mora
stan
dittrich
contrast
fold
disorderly
thyme
demand
##cr
thio##
empt
demonstrable
laser
pembina
nightjar
##atient
ludicrous
hate
dentary
quintuple
mack
grandy
arbutus
conservatoire
duration
cape
toler
crescent
##oic
leech
sextuple
seine
dallas
ossuary
royale
aah
cod
##thing
ignimbrite
##atic
murphy
midden
comma
insincere
brother
oxi##
congruence
puke
virtuous
##ization
fistula
aetosaur
beneficial
excerpt
dementor
##ission
flown
##iek
194
majlis
told
milch
geminate
dey
negate
sand
hybridisation
etna
disproven
affirmation
tiffin
ancest
criterion
##emon
musth
set
degree
sly
##14
albedo
kle
sau
restore
broc
bergen
ent##
roundel
transfiguration
drongo
waterbuck
debut
zero
numb
kat
hooves
reagent
observatory
collegian
diffluence
tubular
ritt
dit
nigella
cr
screw
sauniere
quad
bunch
combine
zip
##androus
louse
ed##
##annel
prolo
oxidant
chaste
conquer
hyperbole
elect
ral
fuscous
ffl
insulate
yolk
lau
jock
trna
dunk
frantic
weight
whoop
in
sip
outgrown
tragus
charleston
guyot
infertile
below
##rey
souq
fleshed
hapto##
deo
[UNK]
transept
onomatopoeia
mandatory
##lock
lacrimal
prelature
cer
tham
fecundity
sambar
cabal
virtue
callow
##caine
turbinate
blaze
legate
canker
dobson
awake
##athy
##ation
pc
brumby
recline
baudgew
thromb##
bayonet
province
animist
banter
lol
tradeoff
##urion
fide
ejaculation
preca
##usk
summit
sandra
skype
gaston
fella
##0
mandala
assemblage
extermination
phospho##
tigh
different
##artment
gaster
minster
##tal
##anta
bai
were
oclock
you
appeal
covert
peggy
missive
wa
hazardous
irredentist
sponsor
waive
cursory
cartwright
raccoon
locule
portal
##oli
imperator
##ude
bishop
triangle
##leigh
quake
diverticula
ebullient
calcareous
pasture
coffin
riffle
dance
dere
julian
messenger
brush
epilepsy
comprehension
turpentine
sunne
torpor
californ
diabase
kobold
stannary
hemocoel
trin
##kind
ballade
bertrand
dickey
nettle
##ova
alone
phylogeny
haemo##
##velop
pollucite
betty
supervisor
leek
peptido##
desperate
overture
synthetic
interrogative
baluster
##sey
caustic
insolent
primus
##ida
pathetic
reservoir
phenyl
syndication
analyze
conservator
bacterio##
##wear
monophthong
trowel
buteo
dominate
radiate
pyruvate
juan
brute
dammit
proximate
lounge
burdon
fraudulent
carboxy
profuse
peer
pearce
##ler
adrenal
meninges
hijra
lutein
automobile
terrapin
lithiasis
hormone
mathematician
diab
pons
poll
dialyze
##inx
laura
rehab
coax
odor
##elly
presage
duarte
sl
barney
megalo##
latch
reply
lithe
exemplify
deny
eryks
##quisite
fancy
recorder
yester##
tingle
##isation
recovery
adipose
pil
chez
ketzkahtel
##istan
soda
cease
##essa
bane
henley
##mycin
omnipotence
garter
advantage
cyte
bomb
heretical
connote
shamrock
revetment
delay
only
appendix
ponce
fill
eugenics
balsam
mola
nucleus
sima
scriptorium
madras
detour
vul
grape
sixteenth
ground
##ourt
maulana
pagoda
parr
prognosis
corpse
octuple
toboggan
tabard
predestine
spondylo##
braid
method
vestibulo##
praetor
colossus
tick
everywhere
sirenne
oestrus
suffragan
ishm
other
ventriculo##
wack
superb
goose
affray
cranio##
barre
##7
daguerreotype
offseason
chisel
florida
mil
infect
barbarian
vane
iguana
struck
minor
inosite
starve
stroma
zealand
chum
hypocritical
frau
misdemeanour
impressionable
##b
cute
caddis
crunk
statute
infuse
dust
sweat
vestigate
plethora
sadomasochism
adultery
predator
##aps
fan
chancellor
protrusion
generalisation
colobus
semble
concise
zanas
spacious
marmoset
preposterous
sausage
swirl
fluorescence
mum
hilarious
barn
sp
moo
quartet
aud
##oodle
schilling
thang
##uum
croton
neo##
inundation
##room
##lam
yeshiva
pentagram
impinge
thunder
instr
##entry
evan
despondency
melba
hearsay
colleen
culmen
blvd
perfecto
intifada
totter
night
husband
inn
isab
##will
vatic
gastro##
##onse
trochanter
##cytic
sup
dildo
depressive
natural
lars
porteous
##enet
bid
transceiver
traumatic
afferent
flexus
intermediary
semiotic
francolin
doyen
##quence
##vel
wali
##ulf
abduct
morn
revel
street
minister
vacca
county
bracteate
bleach
mulch
superior
massacre
omni##
resurrection
subject
##xic
remedial
proud
choose
double
resonate
river
quagga
pluton
conic
ergosterol
ary
wrote
##muller
swindler
maudlin
ornament
restaurateur
hen
copper
solar
citrus
guardian
mire
anterior
annoyance
wombat
campus
hobby
digestion
e
distillation
##ras
obsidian
##ingo
massage
transposition
ap
tec
scabbard
harlequin
plat
averse
balloon
yokuts
ectopic
imperceptible
mcmur
plasm
##mn
vaseline
gannet
intersection
##rama
numismatic
j
trireme
statistics
falx
inhume
poussin
cyano
boomerang
parasite
dad
isaac
barracuda
conner
commodore
vesta
nectar
ostracism
sentience
hydraulic
guanosine
cdr
miscegenation
quintet
intramural
point
neighbor
rebell
shiro
##stomy
##osh
disjointed
##icop
ak
modot
##olute
prophylaxis
equip
ankle
bailiff
pawl
mole
roost
memory
time
kendril
predominance
goto
##spe
derrick
hurl
mayhem
pensive
ambiguity
acetazolamide
wolcott
foil
nerd
banister
pi
cash
whin
crease
shelter
chowk
despondent
seek
contagion
rubicon
bulwark
##way
eng
bill
fiberglass
westie
>
nourishment
amnio##
stupefy
theologian
junk
##ache
nome
jazell
slake
cusp
apatosaurus
exacerbation
allow
renunciation
fastidious
##ok
##phile
pulse
entail
bannister
191
film
hellem
pill
functor
notify
applicant
dismember
demarcate
com##
hoplite
marg
walsh
##ncastle
alumni
##son
malady
brooke
gav
decorate
lentil
av
##om
prior
barrier
flavor
asparagine
cinematography
entrain
revamp
ous
rowden
##ger
dele
##ckey
jaguar
fungus
butchery
##opard
alchemical
condescension
amphi##
refrigerate
vulgar
hemagglutinin
dave
nucleolus
abacus
orde
coulee
helium
famed
defence
devast
villain
chronicle
lazar
indemnity
5
dick
harm
bond
archive
##illery
meal
caliph
furan
felt
catatonic
bushel
treach
cooperation
wad
solidarity
sacrum
blast
davids
slash
pab
cupid
aiguille
trust
##lytic
furnish
matter
vegetation
blister
insulin
pitbull
##ennial
byzantine
final
wafter
apron
spald
peculiar
fob
mand
bohr
fedora
dial
peri##
construct
##xim
cley
mollusk
chose
##cele
maintain
cyno##
thud
commutation
monsie
laserdisc
]
concurrence
tink
marigold
ride
permute
arval
volute
fine
produce
##ranean
giron
it
tender
amp
brood
douche
delta
kl
barcode
insur
frustrate
elute
atol
larval
biceps
bedel
hebe
steric
sake
lepage
##gob
flip
supervis
avenge
chiaroscuro
dental
thicket
nabi
fayth
abigail
loupe
lyso##
resurge
taft
acid
antique
presidio
prompt
afro
hectare
minim
decontamination
toroidal
sematic
megalodon
hinterland
lurch
compassion
spontaneous
luminosity
compensate
birr
translator
mineral
facilitate
rustle
##lot
proprietor
celesta
obe
##q
phreno##
statistic
##iter
sage
drudgery
dulce
yip
joss
fungi
isobar
omniscience
conv
meller
commensurate
enliven
ictus
corregidor
minimize
resistant
pedo##
##don
hasan
leone
tiny
##astian
clever
perverse
qua
merced
cucumber
##inker
little
paleolithic
bile
cind
chare
##preneur
photoshop
scooch
##ame
thank
nutmeg
article
oxo##
edema
chickpea
aire
morphine
hitch
monde
stomach
##uma
blom
defrock
thru
seel
christen
steep
tomm
herbert
refer
crime
haro
introduce
potto
jerome
mystique
prison
corner
piracy
resign
immittance
##andestine
##kk
anemo##
marmalade
baston
poor
objection
glacis
iota
kea
loon
nazaret
exclusion
tweed
twi##
hypertensive
cyano##
rel
##thm
##iasm
naja
kismet
asterism
slavic
patch
lest
murder
gang
kimberly
nail
spinosaurid
tennis
flew
hither
##inald
velvet
yano
quag
diva
philately
comply
stanton
precipice
secco
faculty
almagest
##ezvous
##dow
krai
foo
collinear
pakicetid
mart
syphilitic
convect
picayune
procrastination
thyroid
shim
edu
benign
jane
fl
flexor
chou
trans
lax
##by
snoot
arginine
gregory
dura
receipt
sesqui##
skin
##aint
ria
aspirate
shrink
fact
reserv
ballerina
dag
series
hurt
##van
impenetrable
##sure
courteous
follicle
##ulse
jackalope
adapt
cyst
nabob
ascot
##nd
rowan
status
spall
wink
##umption
safet
byard
tupelo
rayleigh
squid
conjugal
disinterested
wood
carney
arquebus
ancillary
consider
thermal
##rain
mct
ende
brians
kang
##rity
centrosaurine
sample
##bar
revision
archiepiscopate
rondeau
purify
nayak
evidential
porphyry
##olve
##y
startup
inev
gratitude
opportunism
vegetate
letor
nick
regenerative
stray
##aham
mer
radome
impertinent
congratulate
##cture
karyo##
dainty
coupe
delivery
toot
alcalde
repentant
emb
patient
einherjar
adventitious
blur
bradenfield
ocelot
kate
_
lint
philo
knife
plausible
q
##wall
stitch
maklavir
metabolic
pilcher
hectic
pam
relent
technetium
sting
up
##der
compulsory
retentive
vulcanize
cough
mine
dot
hydro
modal
ann
valid
##ight
##ze
frederick
klein
rousseau
juliana
scientific
basis
zama
distant
urge
##less
fop
wasp
restrict
perestroika
valour
year
beaker
ter##
lena
nebular
polemical
gibberish
brassiere
ark
##eta
ozone
arethusa
punctual
primacy
bonk
pastime
cherub
trek
erythema
autocrat
wool
stadtholder
enunciation
solace
ostinato
measles
melo
##my
##splain
bunting
subra
soup
datable
taint
danger
illumination
disciple
enroll
lingerie
##aza
oxo
ballplayer
fenestra
zigzag
thiazole
##ars
hinder
bath
democratize
mai
galena
ravin
petro
##children
##ens
hamster
nishga
ibis
pomeranian
coinage
holstein
##ift
psittacosaurus
handicap
cheddar
vitriol
philipp
spectra
detest
uke
rosetta
cushion
gamma
mesoglea
##ential
pottery
premium
spleen
trot
here
lash
maximilian
manner
goodbye
sticho##
anaconda
dentition
pret
corsair
cott
quash
ease
##ieval
organism
raion
teethe
arch
oesophagus
ploy
yat
pesky
graft
retablo
##oth
registrant
lager
filly
str
torch
december
130
lumbering
chilled
theosophical
centric
tepe
subsume
ceruloplasmin
attend
immanent
##ograph
aliyah
rambo
prom
minaret
corruptible
ashram
hemolytic
cartoon
infructescence
gyps
el
then
distinction
carabineer
##ction
repulsive
azure
descriptive
##agement
unification
soprano
incred
glaucoma
37
ridley
labour
hobo
pyo##
roach
cenotaph
cacao
chitinozoan
bryophyte
statue
sig
jovian
reward
send
succinic
##away
##itz
clutch
##lyn
slouch
theo##
redan
detriment
lovat
mott
luteal
knapsack
ra
although
couplet
##otomy
summative
arene
juggle
random
ceylon
rick
magnificent
outsourcing
verdun
ruths
detox
relapse
xot
precaution
zach
miser
permanent
allusion
lessee
garderobe
##ak
shell
siloxane
corroboration
typic
civ
gelatin
disapproving
yup
iguanodon
hotspot
adage
discuss
geology
##anche
malleable
loy
vis
agg
dracen
xotalan
convalescence
congest
crypto
gopuram
jamboree
makar
thema
ketal
atto##
quin
clast
london
corruption
sinus
arachnid
arsenal
homeostasis
di
fief
nalla
pontine
impasse
eaves
solidify
metric
##rek
polyadenylation
pyroclastic
mixolydian
shanghai
bub
lanthanide
glory
recoll
youll
pinup
##plex
tolerant
towel
grains
##rix
mildew
attractive
delirious
mesa
gill
gerhardt
contraption
libel
regulate
schnauzer
fluctuate
gaon
advertise
aint
tryout
kaylie
accept
atom
cherry
##iva
hyper##
demotic
acquiescence
lashkar
fume
etretat
women
lain
consent
uran
handover
whey
##li
epileptic
##vette
admin
artific
gonadotropin
forcible
hosp
jurg
bourn
rood
alkene
wart
##ara
sensei
valorous
la
##iday
obtain
##naissance
bull
ayurveda
expectant
raym
buckwheat
artizan
moissan
voyageur
convex
tech
jesuit
wild
celebrate
intr
scripture
spam
pageant
##ds
iii
giga##
priory
##ronomic
possessive
sabal
debilitate
##icious
darshan
citron
kendra
camas
cooch
serum
attack
sienna
modulatory
eleven
muscovy
paraplegia
##pr
##if
bourbon
homily
mex
tire
kiln
catamaran
perk
explanatory
anno
##usive
worcester
##indale
decent
brevet
barra
##uel
taj
teem
viticulture
meno##
humid
divulge
fico
praise
lumen
dissertation
pock
opt
monst
retouch
fetus
nim
lee
tolerable
conservant
veto
flash
splotch
vasa
##otic
meniscus
detail
wally
bulge
hangeul
appraise
patri
meditative
hean
variegate
aramys
altruism
adore
reiterate
hansom
multiverse
cocky
crore
epoxy##
poesy
manuscript
##inite
pyre
delinquency
keech
tomahawk
abysm
koala
tirailleur
amount
##thetic
crovir
lancer
haiku
chromic
cobra
smoke
lieutenancy
diable
mentor
malicious
importation
curator
vale
##pathy
pogrom
atari
victorious
numerous
chapel
##arium
sirocco
sidereal
shrivel
characteristic
amanda
##berg
seclusion
tad
##ador
##uff
##ilda
##bby
agony
squadron
exas
lecler
phalangeal
declarative
emu
kallel
liberate
self##
##bur
##all
goat
utmost
##ivia
scroll
gingiva
bastille
shapeshift
plateosaurus
capit
shoah
wyatt
dib
baramin
upside
resiliency
##ck
phenylene
panoply
thylakoid
gaiety
electrode
ermine
scalpel
crick
gage
vaccinia
moustache
ventro##
rancor
prescriptive
cello
procrastinate
nucleolar
maroon
perpetuate
chup
collision
fluster
councilor
##nch
suggestive
taiko
tern
connive
versatile
coast
##ndo
equator
stilwell
insensible
therap
extinct
vio
caddie
pre
mazama
modality
career
burly
hostility
sarrah
ralph
##rence
iceberg
metamorphism
cleat
bistro
##ares
beak
moral
synapse
jihad
issue
violate
physiognomy
thro
inch
sussex
piscina
defunct
babbitt
##gers
lace
##50
##stood
echelle
ulfr
gonorrhea
gator
incandescent
kess
dir
denim
kiwi
snap
costal
medley
##ure
dwylar
##inous
abrase
unless
ekon
histo##
##ac
limb
##ack
till
champagne
campanile
papillon
biopsy
room
cuttle
prosp
imprison
morose
allegory
councillor
deprecation
raisin
lod
abet
perjure
eroto##
##ollen
fen
abash
parc
totem
##lly
cadaver
collaborate
commissar
proverb
usage
zionist
craze
clog
sprung
embolism
herring
polygynous
bestial
anchorite
oda
swollen
mer##
pith
display
##nell
crouch
watch
gab
shrank
sinclair
toby
provocateur
##plasia
benefactor
##yss
compendium
sanct
cryptologist
vincent
possum
clarification
comple
tendon
encumber
@
wet
toxico##
scal
moon
canty
clergy
everyones
nitride
intrepid
yarmulke
weary
##manship
dyn
##trix
womanise
##dar
coxa
amuse
riven
corral
chilli
troika
ch
rectal
##ible
concordat
epiphany
weko
glut
juxta##
mummy
coddle
pour
reduce
derivative
worm
blindfold
orchestra
tomo##
blot
loud
##ghan
fosse
##obile
tercentenary
zither
espinosa
novak
rollout
##bt
will
raven
cambod
vee
amelia
boycott
labialize
fornication
flock
dill
phill
doss
trout
rutherford
be
faint
##j
orthopedic
mundu
##igue
nova
feature
200
recip
ortho##
fugit
virgil
hibernate
promenade
capsid
testa
skeptic
acidification
slow
militancy
tilt
f
vole
veron
imperium
usurper
guava
nickelback
tun
grungy
analyse
rinse
villanelle
##lair
anlaf
mistri
recognition
urania
scoundrel
hyoid
dump
endoplasm
niobe
phenology
exponential
mixture
hive
tine
chromite
tarsin
whistle
pacification
arbiter
dirk
cecum
smashwords
anastomosis
limn
albertosaurus
pand
peso
cau
sped
##azon
shrapnel
itz
extant
refund
tute
france
headlong
glance
tailor
chromo##
ven
lexical
xyl##
##phyll
russula
condiment
iranian
anoint
colloquial
##chs
quandary
birch
oneill
genie
fuck
##uation
table
hilar
spud
viscous
flabbergast
resident
chat
juba
sherpa
sessile
sketch
homotopy
methylene
lone
underwhelming
impudent
sensual
invasive
casserole
mezzotint
evasion
resultant
baton
gracious
alley
diffraction
chevron
enthus
ananas
trage
princ
gosh
audiencia
virulent
##ole
encomienda
##sha
shush
restorative
mother
christ
##ix
amen
recommence
ike
mear
reverent
thresh
ecliptic
regina
depreciate
miskatonic
leningrad
neonate
conce
power
vision
appear
pope
emancipate
darwin
anime
moniker
sermon
havelock
chrome
capelle
drench
pinch
coral
brassey
thermic
anemia
##reme
supervision
etymology
raab
basalt
raid
fjord
rink
elim
caballero
pye
athlete
insist
sque
operative
hey
balkan
shard
stanno##
kif
bracelet
##ut
quick
correct
##that
affirm
multiplicity
burger
pester
wone
diagonal
takka
hussey
grotesque
gave
galactic
pelage
stromatolite
niner
grannam
##oney
fatigue
twirl
opaque
penet
congregate
locust
##itect
wit
seethe
wulf
transport
##owarrior
doody
mangan
raj
##inence
vicarious
fibration
fascinate
monocoque
confessor
couldve
muscle
roulette
chiropractor
collusion
aniso##
eagre
response
radium
cert
navarin
regicide
valkyrie
surrey
geebung
hymn
ancestral
puerile
trumpet
barrio
##umn
sliver
perfect
hideous
machinist
simile
moscow
withheld
grat
deflect
dory
exportation
scabies
ind
ancient
clinker
wallop
sevent
arcane
pu
discoloration
coho
menstrual
cryo##
aborigine
##most
##chest
intransigence
judas
permanence
suzerain
triceratops
gardener
what
boisterous
##uate
plague
parakeet
li
eisteddfod
epithelio##
boogie
nominee
thor
snide
purport
airtel
procreation
broudie
remorse
literation
subduction
ish
##aad
changeling
tubule
oct##
dragoon
nut
teenage
cement
prote
jonathan
ulster
millipede
##edar
cuff
constable
cousin
basha
manufactory
vena
rapture
sodom
##oria
darzan
nihil
lep
fix
adm
property
##xture
ogle
prefatory
tippit
marsden
immaturity
chief
enlarge
push
##mage
ulu
basidiomycete
radical
snooze
perforation
magnesia
asse
monologue
south
pistol
fumarole
grip
extension
reconnoitre
orgone
parka
##fore
formaldehyde
grouper
typhoon
member
kanon
ficus
altitudinal
capture
environ
vervet
amide
euphemism
alphanumeric
protege
nasty
enter
pant
sin
exercise
##quetonne
jolie
mafioso
##iculous
wayang
manzanillo
nes
dignity
rinderpest
centri##
##vie
monetary
rhine
shaven
grog
malevolence
metallocene
anabaptist
lavatory
chloride
sericulture
swath
mormo
deduce
copulatory
highpoint
simulate
pedant
size
cacophony
troll
fiend
dug
##ed
##imp
canadian
bea
immersion
carbo##
dia##
happy
mutable
spinet
obverse
##il
coadjutor
drop
ceti
bore
preeminent
sari
lair
glee
clem
joyner
##bey
eitenne
organisation
expansive
kutch
wince
bamboozle
##child
##itan
thrash
ammonia
pterosaur
erasure
barri
razzle
##scri
khan
hanuman
product
digit
ripe
stride
holt
grampus
unify
volunteer
canto
hypothalamic
erlenmeyer
deliberate
##rim
##ceptive
alternate
rincon
extinction
contest
germain
gurn
benzo
oft
marlin
##asant
slick
portray
commendable
matriculate
quatrefoil
score
derroter
transcription
##choly
assassin
exaggerate
boyer
tetrarch
##yon
bio
intangible
insurgent
pucker
##a
tuffy
agung
seder
dewar
planchette
ghoul
wikipedia
ravenous
quiescent
##lah
swill
fist
drib
grasp
coal
tarp
strata
jodhpur
majesty
abolish
crony
grus
malcolm
miscellaneous
wed
thither
##oming
imago
cutlery
riches
cor
procurement
sidero##
ske
translucent
vanquish
vulnerability
note
berkeley
gardenia
presidium
bol
fut
lookout
camer
##ulis
poppet
thrombus
nevada
expiry
palmitoyl
lulu
nth
shutov
jest
pico##
akbar
indoors
expropriate
cailleach
connivance
sclerosis
retinoid
change
parlour
gula
inextricable
hemeral
proclivity
##ocracy
naan
genitalia
caisson
nucleic
zayat
no
##co
poonam
##biosis
smog
semad
##mate
otter
boule
ennea##
crit
tram
honu
defamatory
flapjack
extensible
lyceum
gau
poltergeist
accelerate
vertex
bridegroom
eerie
xanthine
stomp
exhale
place
##ington
narrator
artistic
nock
amtrak
disembarkation
bungalow
knap
liberty
##licate
pervert
margrave
##jo
siren
franchise
biopic
##2
bequest
disinter
phylo##
compan
nasri
##ector
blemish
salvia
##ado
clough
##ire
pokal
sanger
jacko
eject
ornate
countenance
media
formidable
piranha
##par
##itary
mutual
eurythmics
langu
graphene
plait
twang
stellar
precedent
fiscal
chasse
kiosk
##isf
lame
peat
kitsch
##ctor
flaire
snatch
depression
cathinone
banc
deutero##
hamper
mobility
arable
##orp
correspond
pendant
diary
cream
sway
trepidation
southwesterly
jo
##nomy
limousine
misunderstood
destruct
inflict
erosive
bacteria
paulin
luv
allegretto
embezzle
inexorable
hygroscopic
cephalopod
treasury
sino##
incarceree
ferret
##icle
ph
windle
##nas
capricious
blithe
arbitrator
coliseum
##tle
jay
##ores
analogous
spaghetti
##lle
catamount
delegation
##fag
casement
jolt
seminary
dialectic
padang
lally
##ael
hetar
sacbe
impossible
##ky
dou
##ieu
analy
scrotal
thalamus
upazila
extreme
cassino
incise
varnish
malar
setback
caribe
sartorial
angst
bivouac
coronel
liter
crown
auricula
dis##
##th
baiji
regio
warn
panda
cal
rex
kinematics
disgruntle
inexplicable
willow
loughead
##rison
conductor
##lim
stetson
blanch
touse
over
ai
dupuy
elation
cartridge
prelude
navajo
grave
##znak
knickerbocker
wring
insane
lory
baby
galloway
esophageal
resent
pitt
gale
pigment
mitosis
##izzard
blood
toxicant
ephedra
choledocho##
shunt
salvinorin
fabricate
riverhall
speck
catechism
prodromus
wanton
lub
diameter
emph
freddie
poetry
tsarevich
blitz
liquidate
bittern
caravanserai
rectum
powerline
lave
hyrule
balthus
incontinence
azote
corella
croon
meade
elan
peptone
shootdown
joy
intermission
jh
exact
##itor
holocaust
facet
insolation
parkour
sorceress
int
laxity
central
exterior
argumentation
ozzie
providentia
survive
stromboli
cahier
monteith
wish
privilege
plutonium
cinque
asura
hemorrhage
gmina
astral
privation
xylo##
ratatouille
timber
halligan
adolf
sem
trickery
##recy
pra
terato##
wilson
kilogramme
convertibility
euro
xenon
colle
fly
carnivorous
forfeit
bisect
robbin
purine
caird
tramp
007
vesse
getaway
sangeet
venal
##asis
preservative
scene
baptize
sof
sleet
clypeus
um
cavalry
##olis
klaw
aqueduct
psychical
sold
rejoin
insinuation
cysteine
avarice
##mit
chase
sigma
anglicize
feudal
aquatint
fam
retrench
fitt
##man
##orf
questionnaire
vogue
magnify
sperma
nude
sialo##
bedell
perf
mrti
supreme
vintage
cont
dexter
seesaw
archie
francesc
loam
tremor
courtship
vellum
precinct
##ound
gentry
ganglion
teleplay
recant
cento
ban
auxo##
four
sulu
pe
escal
strophe
quethe
##yond
sith
bittorrent
lola
##vik
tiger
provocation
brewer
aegis
indie
michaels
populous
mesquite
interrogation
twine
armorth
furious
dux
placid
ambulatory
flail
leant
suburb
october
##um
##ony
sabin
secede
lolita
milagro
cond
scapula
bint
encouragement
anticip
harrow
mummify
terwilliger
faerie
fossorial
##imo
leland
rece
lymph
plenipotentiary
cygnus
burnish
heterodontosaurid
recipe
enterprise
##athlon
glosso##
zeid
mufti
villainous
espec
eosin
dextrin
wilcox
deterrent
tea
atrocious
cup
intercept
whisk
##ty
telephone
tie
spani
carronade
obituary
respirate
introduction
corvid
memorial
dentine
advers
##gest
neur##
savior
##holic
nishgas
knaps
present
damage
appellation
adamant
capon
salutatory
reproductive
dapper
##utive
institute
inf
parley
struma
rein
lyric
neologism
clam
spate
unicode
comic
yha
weak
##amine
thwaite
puella
encroach
##ef
disaster
bursary
thorax
galilee
##ug
sheer
##ipe
lemming
rejuvenate
preternatural
regressive
parvo##
jacky
##ident
mayo
##nation
frugal
expire
medico
transfigure
ir
spheroidal
spiritual
huey
intra##
varna
masterplan
##agio
banquet
expunge
lab
chichi
bubba
##tain
##bour
dex
consecutive
yoni
discrete
taut
rugose
pokey
##ail
maxilla
petersham
maya
psi
aboriginal
cand
textile
enfranchise
entre
hoke
spurious
enter##
grieve
custodian
additive
exertion
venus
chlorite
exhibition
indulge
kirk
loathe
venison
sepoy
scat
founder
louie
##ourn
operon
ith
palato##
biliary
subjugate
cillian
caco##
substitute
enteric
carmine
cable
denominator
multi##
blank
her
gigantic
bink
agoraphobic
viscount
upscale
lunar
boor
cynic
varick
disorganize
rand
jerk
gwend
purpura
solendria
hajduk
testudo
scrab
flamingo
aurum
nizam
kingdome
sauropod
norman
flautist
##elt
deliver
twenty
helot
mitten
igneous
soya
fuddle
hydra
croup
##ulas
wagga
crewmen
culver
suspect
lande
critical
convict
bookie
piggyback
narcotic
murage
depress
francis
hispanic
coaster
transpose
savant
beatify
pedro
paltry
duct
sac
influence
amicus
banja
cineplex
noah
rack
mackerel
grou
liver
##ision
infraorder
observe
##mann
mucus
braille
fovea
warder
arnot
redistricting
exorcism
ester
##vice
bramble
anticipation
yantra
raffle
pizzazz
##loy
enough
chic
##ister
vellac
##riage
topaz
philharmonic
neck
match
majest
bibi
in##
half##
ogee
pool
subjugation
tyrannosaurine
perversion
thew
nelly
rundown
significant
capitalist
rob
invulnerability
logo
prejudicial
sn
soliloquy
fade
imminent
casino
russians
watchet
putrefaction
##ention
weap
aplomb
telangiectasia
##held
summa
nigger
infirmary
ampulla
empress
black
circumst
shylock
cabildo
faraday
sandhya
hexadeca##
aislynns
armagnac
rok
##centesis
tode
dia
verdigris
indoctrination
print
reductase
timothy
grind
tycoon
##rupt
tibicen
daffodil
##iety
##tore
yune
crowd
aerial
money
reis
thr
wiz
ferrocene
volition
quadri
ake
prudent
bullet
exter
evangelize
pandanus
munchkin
logistical
exodus
machin
forb
boo
dollar
isotherm
##be
technical
ignition
drizzle
narration
bismuth
despatch
nebel
tapaculo
please
oxalo##
hyena
breccia
##uller
thick
\
tristan
bad
contemplative
gnostic
solon
infidel
lamentable
florentine
phaser
wagner
scorp
parallax
gum
lindsey
ambulate
throstle
tampon
monist
innoc
fame
crone
indictment
convolve
cogent
goff
madge
alexandrine
impious
pix
experiment
over##
aeration
glenda
sed
flamenco
throe
viceroy
prenyl
dracula
valve
continual
communicable
##im
boca
shutout
revile
artillery
kos
herpetologist
condone
##ts
rudder
hollie
honest
veteran
caudate
kar
##orton
##sden
gey
ravage
eda
encyclicus
agitation
flaunt
generate
dunce
prisc
##anna
camoufl
daw
##ingle
##vi
ordinator
prioritise
callus
nurse
guido
risorgimento
carol
gumbo
quadratic
cerebrum
wafer
demure
braden
##plasty
bund
amulet
ferruginous
mol
jubilee
cordoba
occupy
neal
saxophone
bevel
rafale
woomera
diffusive
dec
currency
quonset
archosaur
dar
##len
harris
##ios
bazine
iodic
adventurous
eyre
circum##
puritanism
glac
sparse
shanty
rouse
peng
##escent
afghanistan
reflux
rhino##
docudrama
stucco
##iation
janik
detrimental
{
carpal
octave
gir
##ales
arak
disuse
scrutable
leather
baffle
zephyr
apathy
private
##anch
reserve
countess
phantom
kinetic
fraternize
oblivion
calorie
inadequacy
providence
goosebump
disloyalty
cab
refute
hammam
pec
##ww
consummation
##biont
award
lagrangian
davis
bridge
sanctuary
parrot
vandalism
hookup
enthuse
stellenbosch
percentage
plaid
simplification
elate
fluorine
amour
##join
clone
give
prostitution
interregnum
nuncio
theropod
evocation
ventral
maggot
presidency
rout
disenchant
apsis
scre
battalion
otariid
tendency
prescient
surrogate
##rid
dissect
sacrilegious
piccolo
pogo
glia
inquire
##iple
scuttle
umbo
debutante
caught
georges
ferocious
proliferate
assure
protocol
ischium
roc
via
ska
ethn##
refract
protect
born
haven
compreh
mick
dignitary
scrum
price
galley
storey
standoff
constabulary
nin
convalesce
distort
besant
aulic
nathan
pension
liquorice
##gar
clean
dhoni
postulate
hilt
paso
val
rank
defecation
##res
glue
practice
lizard
erna
appreciable
rasa
exemplification
slatt
claudius
hypso##
cleave
chandler
zak
exon
chav
gansa
dromon
charity
tarren
##vore
load
##erness
##agg
atlas
gourmand
rico
satire
repatriation
##agne
suspicious
silk
tenet
agaric
liza
onco##
##uous
logistic
sabbat
exempt
##opher
emir
bbl
cunningham
arthrosis
tam
araba
greylag
zog
##z
kine##
labrador
eye
vigil
incompetence
photo
complacency
santa
pertinent
gad
mecha
strew
sas
marmot
complacent
herse
kenya
departure
dowel
##ilia
fungi##
duch
mast##
##eck
jeju
stickle
cookie
algo##
waddy
sandwich
drown
##rium
oxidoreductase
daze
mandate
##ferous
liberalism
resc
boza
stempel
##tude
bedlam
funakosh
hemorrhoid
persona
fren
arioso
beeswax
ammo
satyagraha
oscillate
deco
suc
illicit
hermetic
cryo
magician
scarf
recognise
herbarium
cortisol
##lt
star
kabballah
kyrie
telo##
fore##
tiel
contempt
carcino##
take
##ott
summon
bask
tsuga
contrition
chaise
flamboyant
approximation
spectre
##lon
tilapia
rampart
sleep
sneer
jumbotron
rhodo##
pharmacopoeia
mestizo
salamander
dispenser
santer
septic
spew
phytophthora
progesterone
liang
costa
knead
spout
splice
ice
potato
refreshment
troop
favourite
##iis
cone
lure
repartee
voluminous
wretch
prowl
constellation
bolivar
productive
tribble
wound
nothing
grisaille
swish
amygdala
isthmus
amaryllis
whodunit
fell
##laf
cohort
perm
##olf
nona
satisfactory
osmium
dub
system
scrivener
vaso##
busta
lam
suffer
hid
shield
secretary
septicemia
hakim
nought
recover
leb
weiss
two
##rial
matchday
mastery
##ral
ineffable
omnibus
decennial
incoherence
harlot
spheno##
obtuse
##bida
subtle
stark
riff
luxury
##hammad
affect
tas
tory
ade
cogn
animus
gestalt
deputise
bhangra
tilak
subcutaneous
ninja
tractive
masculine
eradicate
anderson
refrigerant
sop
convoy
slaught
transpiration
##dock
perturb
denominate
descriptor
rime
methano##
que
cashew
surat
arrange
neoprene
concept
binge
fraud
preface
infinitive
jew
amphibian
rud
contentious
carib
maximum
zaad
matilda
rennet
company
teleportation
careen
irrigation
heli
consumption
ataxia
hinge
above
trouble
sentence
defect
inoculate
vibro##
daniel
eschatological
dugong
aft
brig
##ordinate
viva
zombi
accent
prim
##ribution
rotavirus
chihuahua
invincibility
carboxyl
along
marja
tropy
felicity
##tactic
communism
##phobic
deadline
trachea
homogeneity
cteno##
kohl
clo
sheet
enc
scarborough
##onic
alternative
peek
stub
pedagogue
loess
prickle
temperance
suz
milliner
inert
spear
supplementary
sialyl
fertile
shelduck
coronet
optim
isa
syl
##penia
darcy
icy
alysse
tabasco
fraught
elongate
fanzine
honky
supper
parlance
ric
clue
dab
incomp
skunk
incredulous
tolerance
strauss
potion
hieratic
radar
syncytium
avulsion
asco##
deposition
indri
polygon
pollen
vuk
tireless
realty
zirconium
ethos
incurable
idiom
monopoly
kerato##
inv
##ative
disher
nish
picts
wend
portion
sunken
hexa##
malign
texture
lawe
parishad
salad
disorient
cut
stifle
shriek
bare
briar
##ffe
trib
esplanade
pull
bullion
##c
simmons
donna
epigraph
nucle
hung
druce
play
slob
drain
##self
met
entomology
petrel
sultry
hidrosis
anaesthetic
##ovan
indentation
oops
negligent
metroplex
kittiwake
excrescence
three
introspection
frith
##ci
mammo##
drogue
super
recluse
upsilon
artemisinin
opossum
composition
##enus
cuticle
discolor
tablet
oratorical
##dder
destroy
protist
artisan
crash
melodic
wile
##raph
glade
##etor
dawg
luxuriant
typhon
tomentum
pak
##itch
curd
altan
mortise
wort
o
cellist
cannibalize
alcohol
ars
##aft
##ifle
perrier
raf
straw
myrtle
wheel
february
commission
olympiad
episcopate
plausibility
cepheid
estimable
amira
##tion
doppler
aloe
centimetre
interpret
cruciform
address
##up
##born
cavity
fifteen
allisons
juxtaposition
laceration
simon
coat
##oss
carrot
index
evendell
##assador
yam
vanitas
cementum
mitigate
reval
hang
micron
schmitt
puffin
estimate
sub##
darby
epicenter
##de
titania
arno
##leptic
destrier
sara
dhoti
taboo
spartan
rishi
rakkian
assort
lynch
lantern
brahmin
sledge
stampede
spite
doink
mediate
leavitt
lig
cloister
ryans
swap
valor
tat
porphyria
kumari
takeoff
fleche
gr
cattle
alate
entrance
imam
##amar
lipase
kauri
seminal
hostile
ackturra
stagger
##uese
eyalet
maven
aislynn
spice
##cela
insomniac
tonti
##ima
vesico##
##le
soldier
exploitative
brocade
rage
walk
hee
accrue
parti
alameda
margherita
annular
aug
ambulance
hypha
acupuncture
swathe
inj
suppression
slime
hah
chantry
collin
mms
novella
bunt
scapular
about
cortege
lt
##asse
jackson
barque
ivory
diddle
pile
vigour
llama
sinfonia
lovin
salute
quixotic
miserable
shit
indiff
historical
foster
las
niggle
ty
##zy
chau
nuke
##sue
quiz
##icy
trodden
banzai
stoat
##usion
absorbent
sud
mahone
potent
flor
al##
gurl
flange
mallow
lady
dendr##
ketone
ribo##
powell
slut
rustic
pulpit
aware
tonga
proteasome
orrery
hybridise
awl
peter
corrosion
eth
chiral
colonel
##ica
femme
tyme
ware
penicillin
var
natr##
canyon
cicely
clayton
##opy
tart
sconce
i
##ath
aspect
##court
scoff
pedal
gymno##
carmel
stirrup
cleaved
garvey
ague
stringent
mourn
offense
prosecute
nomadic
anthrax
mucilage
ureter
accident
##era
##icide
sanskrit
displease
cassie
methyl##
adulter
mich
alt
jet
caviar
##ster
guerrilla
##bris
malacia
##ulge
wren
yuppie
guano
juvenile
monster
wyre
marionette
nyc
dishonor
melon
tuber
shop
strategize
jarrah
diction
literate
envisage
alveoli
koskinen
fit
##gio
conjecture
dynamic
il
miriams
newell
etic
absurd
operculum
pr
denizen
mitochondrion
austin
fat
rational
staid
veena
saun
para
dryandra
trillion
vagrant
larynx
chap
claim
artichoke
regent
silo
##rus
##uz
dolphin
diminution
alienate
shah
##to
reviv
sacrament
millenarius
epigram
plus
keep
bodhisattva
ology
intrusion
catalogue
##alous
kamala
rung
poo
##idote
jennie
nept
impression
politic
ag
medical
noodle
yorker
dysphoria
coma
livermore
fluke
matador
utilise
chafe
claret
ampere
sturdy
partition
pollux
##irt
design
gascoyne
pedestrian
##vent
lyss
pimp
culinary
##aven
ress
mik
stricken
polaroid
##rrhaphy
subaltern
lu
hereford
rosin
indiscriminate
botch
##estine
sesterce
matin
##dle
character
fier
kaplans
shole
cremate
mist
##alan
audience
demolition
##tin
alimony
icing
luanren
##gnathous
transform
bimini
laudatory
steady
aristocrat
multiplicative
marcher
##vous
queue
croak
binocular
07
necessity
gawk
divorce
arch##
waite
virginal
crocus
error
pika
##20
mortem
towne
##sh
endocast
kendall
fawn
##pm
repay
studious
ic
##trophy
emp
circumvention
senior
bait
gauge
jitter
##iel
comandante
retrieval
loin
da
geist
crackdown
verticillata
page
inevitability
orange
leprosy
torpid
fillet
##irk
appointment
cardenas
this
bran
injection
hiram
broderic
##ise
convenience
impulse
venerable
immune
cling
forebear
kilo
##ulus
kirtags
reiter
wic
dian
wil
lactate
subordinate
net
deviance
local
recur
telluride
germanophile
x
under
materiel
deficit
shudder
acetone
amalgamate
pumice
##fer
macintosh
##4
maggie
parametric
ployment
##onne
pneumo##
mirador
masochistic
external
enviable
31
smash
alleviation
spiv
ragged
gendarmerie
revert
bogie
opulence
tawdry
kaigara
ovipositor
enem
weevil
mozzarella
violin
dysprosium
tribulation
bronchitis
mellifluous
law
enormous
pedipalp
voivodeship
posterity
coh
joule
restavec
bentle
accom
licentious
cockatoo
tattva
flue
almoner
huckster
grime
shred
andro##
cop
supervisory
12
wr
legitimize
hab
systematic
antonio
landau
perfume
machete
ado
##otep
regular
canonic
peshwa
baccalaureate
nithotep
cerium
dictation
param
veer
car
curve
lopho##
penalty
straight
minnow
pervade
floss
platen
irish
snoop
obfuscate
chai
bobbys
radish
mandir
peremptory
##under
latent
wiener
his
social
taper
##cur
##ast
trous
pa
sixth
coca
harl
circle
meningo##
cat
scythe
dispute
boson
peon
mexico
chassis
stela
sick
salzburg
military
##iative
berg
wazir
wander
hunch
orchard
recruit
there
equivocation
ethnic
murine
tapho##
dean
help
divide
cere
worth
demotion
mong
cervico##
boston
##borne
epacris
##trope
boh
ruck
thrum
didymium
knoxville
extrusion
williams
esoteric
kiley
lisp
caste
sleaze
aston
vict
toit
abby
##nt
##itude
echo
rash
agana
psychedelia
olig##
shute
diurnal
theyd
populist
##elp
shape
dire
anson
addition
canal
salvation
wigg
glutton
arseno##
appointee
##iid
abrade
candela
diversity
misnomer
oncology
pierre
satur
peak
serrano
yaw
pretty
hermit
pest
corrie
arc##
leat
tarsier
anglicise
bouillon
marco
zarr
senate
vetch
concl
round
emer
squalor
insolence
ab##
heli##
stent
joan
luminescent
bra
randy
homophobia
dedic
herd
firm
cryptic
nostalgia
pharynx
moreland
owl
prophecy
dorado
footy
dapple
forest
bavarian
##some
ghetto
someday
albino
capital
obol
raphaella
ivan
george
wtr
mell
##carp
coop
ingredient
percy
paste
partita
##it
bi##
contributor
todd
deferential
octyl
##lith
globalisation
16
manfist
tremendous
doucet
dort
pall
plunder
##osa
bast
wednesday
##igh
tum
schizophrenia
morgenstern
controversial
icecap
impotent
henderson
herbivorous
ballet
garuda
stratum
wheeze
hexa
##ust
davenport
ferment
cotter
steppe
civility
amir
##kel
balustrade
knelt
##ushka
resurrect
magnitude
##orous
semantics
gramme
piz
integrate
ig
flop
customs
##of
campanella
overthrown
air
vie
gastrula
bison
elite
sorcerer
compact
communal
mortier
priscilla
tricycle
haydee
assay
broad
chaperone
agonistic
paci
tattoo
waif
occlusive
armadillo
brusque
elongation
puro
yonder
carnivoran
##aholic
supersede
confeder
leaf
ciliated
chitty
##mans
tractor
georgia
dynam
ellis
malto##
buddha
myo##
quinoline
typographical
brendan
garnett
spire
emerg
displace
cochlea
sculptor
enrich
associate
regio##
quip
brattle
emotive
ob##
eradication
pipe
manual
leon
projectile
burnett
sejm
ectomycorrhizal
efface
did
##uish
exarch
numeral
hyphen
aberrant
legation
livid
lux
penance
shiver
disadvantage
##oph
operate
zos
##vant
camaro
conjunction
hermeneutic
brant
nona##
antibiotic
east
ventricose
hostage
siphon
cartulary
toga
penitentiary
inboard
philosopher
carouse
gastritis
##abeth
morice
eunuch
astermine
silica
ceiling
##erial
landon
thigh
fullerene
polity
carpenter
predation
avouch
nursery
posture
urea
brash
cohesive
interior
estuarine
millenn
phyto##
surgeon
##ime
inflammable
bench
hantavirus
##imate
easton
mince
##val
disconcert
sudden
leger
crayfish
obvious
equ
comique
farther
villeneu
moult
hilarity
consolatio
zee
baptist
clade
secant
porgy
guar
secretarial
brolga
suspension
barth
tranquil
scoot
apomorphy
jac
litre
lough
blate
trabecula
lawmaking
primitive
ossification
toile
stalwart
laryngo##
durable
weir
contagious
enigmatic
burgeon
frit
jim
amend
exploitation
awning
worse
##glot
battlement
beretta
drethl
stupor
scherzo
##rote
wadi
grain
bibb
fred
sympathetical
lob
injury
obstruct
rot
machi
barnet
tortoise
chriss
saman
bazar
sheathe
comely
dye
fook
jacque
squirm
mu
##rip
shari
terr
dissuade
streak
restive
deejay
erica
banal
such
grief
yoga
bolton
cockroach
conspicuous
bowie
compl
dominus
appellate
ped
##hile
portability
jaw
stoma
heal
neel
pulley
##ence
##oop
perspire
di##
read
bree
zircon
inconvenient
##va
##olate
##eph
##but
fatwa
meagre
##ete
indelible
allegiance
vasculo##
caveat
imidazole
obi
yeo
chill
chimpanzee
sclerotic
27
erect
melanin
tork
commissary
nook
conte
ell
salvage
daeg
verification
pupil
lek
nylon
muhammad
scope
dimension
quill
inocente
ten
pyrimidine
sadomasochist
reception
dirge
portrait
redox
mult
for
199
##aves
damascene
tripe
yarrow
presumption
wall
econometrics
arrondissement
multiple
falciparum
therapy
foe
guest
flaherty
lack
rial
deductible
dakar
gauleiter
restraint
hunt
lech
calliope
collation
xantho##
cornish
##com
pir
lucy
vindication
geno##
##sp
squib
culprit
happ
chole##
eulogize
traumatise
contractual
astonish
pistil
sulfite
##vern
baba
junket
forth##
kilt
future
endow
assign
moy
troubadour
evanescent
cheer
##ably
scurrilous
argyll
imperious
curvature
twice
##ship
mug
##any
eighteenth
recto##
capitalise
opal
cephalo##
sora
cumulate
hombre
lyssandra
flavo##
brand
bravery
##ret
vagary
branden
whistleblower
gy
glomerular
opsin
rabble
homogeneous
static
lucas
hyd
palomino
vermilion
ovary
optimism
vigilance
bustle
muskrat
paresthesia
osteo##
lambert
palanquin
collective
anger
vall
rectilinear
broder
indivisible
insp
bebida
thou
project
tyrannosaurus
##erty
metic
effigy
sinter
runt
through
cele
##itution
gun
europe
acalan
jingo
tormentor
appall
riband
fr
nickelodeon
contraband
falsehood
westerly
scam
rade
actuator
scrotum
vell
beck
kady
nebraska
vod
##igo
galileo
psoriatic
vortex
fallible
eagle
filaria
desp
misery
officer
nudge
##day
##hood
battenberg
planetesimal
polar
sanitation
malignant
flout
forge
pink
prov
whirl
drac
prosauropod
senton
dedicate
thug
katyusha
ache
slurry
naked
luan
succeed
##osition
discover
mycorrhiza
modem
fleur
ameliorate
lag
invest
abound
aristo
chasmosaurine
propyl
tunica
barton
ethics
inc
nucleation
mela
##pterous
contr
barrage
souvenir
scald
superstition
acknow
ceremonial
quave
sebaceous
thane
tout
kap
##ines
clout
ding
raff
ize
chivalry
as
shark
clementine
curare
provenance
scull
lune
##ving
lariat
geron
fran
conscription
genre
centipede
nautical
yeah
endothelial
tanah
forster
waist
##able
expend
innocence
voice
fragment
scram
sextet
racket
adv
galore
austral
liquidity
cosmology
##owers
brony
##gony
narrate
sclerotise
misgiving
families
profile
circuit
grouch
camouflage
peep
##board
passerine
peck
arrow
ovule
detract
40
##ient
teetotal
haemato##
diffuse
smithy
mirror
imperfective
##lik
##achi
witter
nit
ambi##
phylum
defector
pernicious
##act
circumference
unique
galba
frigate
odometer
detention
registration
grison
regnant
mario
##aka
scouter
sleeve
relevant
elcano
wapiti
illeg
lynx
##ati
andrew
cong
annual
expedient
##ices
##mere
##igneur
##quiry
arbitrate
vodka
inimical
variety
prance
##metric
susan
oath
lar
distraught
vague
tactic
nascent
blanc
rejoinder
sav
caput
let
rusk
kundalini
jamaica
laundromat
aquatic
professor
search
debauch
thyroxine
caul
suffocate
suzette
bulletin
fumaric
concomitant
shive
smarkzy
erudition
scallop
nutritious
temple
burgh
pyrophosphate
pahlavi
hepta##
glide
##oul
toxic
goof
yell
cylinder
best
cantilever
p
hijack
pitot
indole
dominator
sheila
dobie
broccoli
outcro
terwill
quant
fulfil
[MASK]
illustrious
recite
jot
argonaut
bab
admir
pillar
##inel
bathy##
counselor
proboscis
ant##
houston
negative
smear
congestion
tear
villar
christopher
march
tunku
ubiquity
inhibit
mojo
lac
recitation
signora
cook
##ban
tobacco
##min
mecca
marque
proper
megd
bine
requiem
turson
efflux
incursion
methuselah
##lta
sequestration
beep
punish
prosaic
##suit
##pert
elementary
incest
float
marquess
boxscore
compiler
enclosure
##ev
lose
technicolor
darwinian
##gether
fodder
congratulation
##oot
scient
procure
mens
dialogue
revolutionary
##prise
atalai
heath
expanse
warranty
binn
sweet
flo
obst
electrical
rodham
##ody
repertoire
janney
hoover
nanny
rom
muzzle
phane
speckle
lemma
foreign
putter
quorum
pecan
toilet
bleson
embolization
absolution
hav
nest
stipe
dyslexia
rabies
wedge
##p
##orn
browley
stalagmite
infer
colleague
##isure
omelette
pace
find
nature
uric
purusha
resort
consultant
##sen
mesenchyme
avail
##die
covey
phonic
verbatim
raunchy
belligerent
bronchus
bar
zombie
##itant
shraddha
gimbal
186
fakir
nauseate
strode
levy
countervail
shore
pulsate
interpose
estate
illiberal
riddance
compare
soc
regaining
plaster
vance
kinetics
sparrow
cub
curacy
reindeer
nitro##
caravan
tainer
procession
ballad
urethane
myrrh
ignominy
recuperate
wold
shash
fictive
seam
flee
##fl
cabaret
surface
ide
##ua
aperture
delineate
supremo
phys
merrodon
loquacious
heckle
mere
ego
haplo##
suggest
##illian
chide
gnome
dealings
foray
##ression
chemi##
derecho
nephew
spitzer
bucolic
ach
emell
##here
lop
plunk
sludge
flaccid
amplification
laye
depravity
better
sambo
concordance
biotin
hamzah
evolution
skoda
remuneration
glamorous
##rok
abele
quib
reclusive
station
gimme
pueblo
plegia
spell
##meister
squelch
henriks
satanic
nare
colossal
mir
vip
sarga
positron
corium
left
civitas
provident
borate
kalam
dzong
proffer
florid
harry
cheilo##
georgette
branchial
responsive
voyeur
##ows
circumstantial
##nis
jones
veil
cosmos
regimen
##dd
consign
wick
aberrate
leftover
hieroglyph
transgression
distinct
repressor
langue
tragedy
##ahkan
##utation
ancestry
elegiac
monocle
anaerobe
yager
promiscuity
recension
posh
bring
usher
unicorn
glitz
symb
horoscope
pants
plush
dubstep
emphasize
##las
expect
library
pressure
illegal
##cade
short
##ari
pickle
concertante
##fect
##uge
deduct
##cket
mic
hs
##phagous
transference
secure
aerate
strait
crinkle
stung
specialty
sally
raptorial
laure
terrane
compromise
dissociate
##mel
##enance
triceps
personnel
remote
kirtag
ulrich
creative
tint
andes
sumo
pis
jab
popular
perdu
render
oribi
coronal
elitist
novel
spy
chor
retinue
proxy
astroturf
197
dew
##acham
zul
gouge
##nap
marielle
##field
slane
debris
eucharist
adorn
vocoder
director
hector
prince
venous
studio
paedophile
auro##
neph
duplicate
plead
vendetta
jesus
moth
glioma
ri
styrofoam
barbara
hancock
barbarity
wilbur
inadvertent
mosque
queef
##arette
animate
lodgment
prudential
cardio
militarism
rock
boletus
dendro##
pinnace
hornblende
begotten
inductor
##mic
perfunctory
actuate
amnion
immunity
eisldor
gorilla
accordion
ga
anine
leucine
sitcom
sty
india
equivocal
inexact
##lude
reprove
slab
mesothelium
blurt
pooja
gandingan
st
vancouver
champion
coed
rafter
##illion
capel
tree
soule
heifer
discus
mujadeen
bat
athero##
bitumen
fledge
tubercular
somatic
incongruity
johann
galvanic
##aton
adieu
arduous
aggravation
ostentatious
testator
##mail
soldado
prognostic
dierd
paralysis
latin
tourniquet
inaccessible
apple
beef
ayat
arith
serra
onus
chaco
toshie
commit
cowl
bi
credential
lesbo
leapt
primo
gam
lymphoma
twerk
vi
shout
vacant
##philia
xanth##
pleo##
misanthrope
whither
##oo
carto##
cataract
squalid
amoroso
bertha
taran
pod
gestation
##ner
##thermy
otic
sono##
query
pale
corinth
[SEP]
slander
medicinal
improvise
asthenia
lach
metal
if
zag
tosa
diaper
luminary
inne
scone
alert
interception
sister
binoc
contingent
sauropodomorph
ukrainian
radioshack
uni
rhynchocoel
thompson
inclusion
slush
kumara
gault
##inger
##hawk
actino##
condominium
##uty
##urch
agouti
sallow
tarpaulin
tomas
injure
neg
derail
experience
##chrome
amyl
blazon
curt
tao
tremend
iliac
course
manna
##iew
whiskey
##sess
stef
metropole
apprentice
antero##
fight
assignment
tremble
##scription
mutiny
##lipse
gard
fluoro##
marconi
manche
##ience
soph
perceive
nucleate
##she
myna
delimit
75
excellence
vamp
asphalt
idiot
weber
automatic
superfund
dormitory
purch
tub
veracity
tet
dong
stegosaurian
canis
pol
aloha
werke
more
fiddle
scream
jena
pepo
capitan
slaver
auburn
mutate
##morphy
phene
elevate
junta
##acter
mustve
accompany
hydrate
quire
variable
midge
movie
gold
perspective
lied
rus
sanctum
frugivorous
seductor
barlow
cloke
clinal
ye
minx
proportion
accredit
photo##
lei
threm
##rog
parach
deer
lend
rabbinic
thought
came
utile
lees
nutrient
bouffe
bagel
bapu
sheik
thre
##erous
epitaph
rally
salix
infra##
infam
codex
forty
particle
seraph
catapult
##ndell
init
conversion
residential
represent
##ada
trip
cosey
rearmament
bizet
throat
preferentia
poseidon
flog
abscond
shaft
##hat
greyman
outstrip
quarantine
mimesis
sinuate
robe
##onga
predicament
machicolation
##mun
papyrus
bung
stank
##thew
vacuole
strato##
maj
wacky
milligram
monstrosity
auk
bop
consistory
laid
meiosis
barbital
arras
bosom
momo
codec
recumbent
fest
extrinsic
eit
calabozo
gazelle
##ste
chorale
stereo##
hobble
panchayat
digestive
dacryo##
simony
wellcome
filter
scratch
verge
zen
mimetic
maxillo##
pinta
marsupial
cation
chay
mammon
luis
interpolate
advocate
bobby
##nie
umbrage
rover
noun
farce
dexterity
nance
##wah
praxis
calla
sona
tropho##
vele
sung
virtual
corporeal
apollo
scleractinian
pilchard
toro
safety
lympho##
cooter
mound
smother
##iasis
mar
zealot
##mma
domino
spun
cow
capybara
##1
vaccine
frie
algorithm
dart
beek
varus
24
sterile
suede
pops
demote
impartiality
oxime
absolutive
sunk
flavin
tuba
##ldron
##avor
subter
festa
affliction
retribution
speak
pledge
##ective
spray
pose
caribbean
glatiramer
decapitate
egret
treat
intervene
mogul
riel
fortissimo
red
treasure
artagnyn
##enser
mirth
yale
cessation
miniver
sightsee
ah
tran
manorial
frodo
thut
mallard
invincible
strenuous
inconsistency
malibu
attorney
faa
vizier
seem
bever
tanuki
tabor
whelm
negligence
preliminary
hui
##yr
ss
dedicatory
amphitheater
fever
eat
bobbin
bey
##wn
trojan
illustrative
weta
stereotype
thwart
annulment
##adelic
peninsula
lay
tryptophan
##jan
tru
histor
solitary
donkey
faldar
physique
nas
brust
##iry
saliva
navvy
spur
cent##
is
tele
marial
carapace
apprehensive
craw
mink
arp
rorqual
scrounge
feroc
weissmuller
leeann
ichthyosaur
fluoro
blunt
propylene
baillie
marge
lacustrine
##cosm
devil
kelvin
ibotenic
ichthyo##
grate
swift
bottle
sociology
fester
ol
niche
pizzicato
trophy
##ille
univers
teasel
demerit
peasant
lutetium
yelm
perdition
celibacy
sexton
##rior
kimber
derive
consolation
tract
fark
debbie
nirvana
skid
simulant
crevasse
intercom
##cul
##omic
##ize
satellite
##rr
addict
diploma
murk
hench
strepsirrhine
harman
brest
opera
anten
intuition
gyp
bruin
stratospheric
recogn
moegoe
carpet
glyceride
collector
jebel
hero
##ffin
fauna
myst
flume
manila
kindergarten
straightedge
bogus
cost
sorrow
mallet
jell
scud
seb
mead
jat
deprive
plunge
wond
ernst
polonaise
flak
samson
yeoman
##oice
ze
chaura
##aqu
bromo##
dower
mund
uridyl
ricas
hessian
beryl
benevolent
chardonnay
cortex
vertebra
smoot
democratic
canoe
90
malonic
lycanthru
weal
bower
naiad
pinus
pragmatic
mandarin
preamble
##ather
deletion
precocial
disapp
##crasy
zaf
fundie
pistachio
decline
strange
defraud
purist
##ind
arrive
decurrent
cancel
mammal
nye
##5
envelop
evince
bindi
##ief
rune
##cro
thamss
chimol
bus
adversity
fiat
tool
tensile
transistor
temazepam
coincide
medicate
demosponge
wigan
tedium
fructose
chal
meteor
log
franc
avid
coppice
distr
cutout
jhahnahkan
disciplinary
mump
maia
german
treacherous
election
bau
yotta##
cantina
silva
crist
she
moralize
stubble
##dee
sesame
stupid
##ses
evasive
memorize
verd
pleura
kathleen
def
any
digest
vato
aquamarine
acanth
fable
discrepancy
##adow
delinquent
pug
splend
##eral
ridiculous
chin
pachy##
cherish
siege
##anahan
chestnut
castaway
pinnock
engle
infero##
houndshark
alman
bravura
diplodocid
wee
epistolary
diatonic
tenge
alphabet
excision
libbra
pygmy
mandible
elaina
attract
commissioner
pipit
convulsive
peristyle
snare
courage
##onto
fk
dog
kulak
bolin
succinct
mako
tal
walden
easement
##oun
aviso
autom
submerse
pouffant
continue
vocalization
contestant
berry
olfactus
smatter
rise
mater
martlet
peta##
northern
eloquence
tox
##10
perch
##hh
posse
##enard
dermatitis
inherent
finish
abominate
accommodate
cannot
##phony
swe
renown
burley
join
president
tiara
roentgen
rouli
impulsive
glum
under##
undine
predilection
apical
accomp
beren
puddle
kino
coffer
carburize
bun
##llen
application
peridiole
propulsion
explosion
hoddle
modesty
palp
fascia
satisf
caroline
posy
tatter
muffle
frill
evanescence
spinach
continuance
tibet
graphics
starr
spica
follicular
tretinoin
england
rado
powter
afell
chalice
scheme
shawn
humdrum
allele
while
appropriation
participant
emotion
henchman
basset
petite
entry
quid
freeport
daughter
##ait
cla
ciao
perce
fossil
walt
plastid
ea
ramous
dumpster
selection
saad
furlough
jaunty
individual
wrong
##ule
candice
arcade
aphtha
che
pouch
metastatic
kinesia
unitary
hypothetical
##sm
##ady
cypress
torn
nag
cantata
selenide
coo
cladistics
proficient
##immer
ambiguate
##i
farm
cutis
debt
thrall
explosivity
abstract
spasmodic
heuristic
appease
lancourt
nicotine
vicissitude
bassoon
##desis
frailty
boat
vernal
and
quit
##reg
solve
madrigal
impeach
pitchblende
snicket
bitch
ornithomimosaur
compressibility
fe
forthcoming
tomb
orca
constriction
corridor
dece
magnesium
koto
crucifix
desire
fugazi
gentlemen
sebum
flutist
energise
wyandotte
stein
##licious
target
goal
hub
parameter
fortitude
quantitative
certiorari
thesis
wobbegong
mill
luck
susp
feist
caiman
##odo
madrone
saber
dilution
pinfold
obstetrician
sierra
panache
eugenic
resect
##ness
incremental
casein
fry
stern
threw
lucid
clive
larch
extricate
displeasure
violent
doubleheader
##ndon
##sin
teste
buffet
stochastic
qadi
squeamish
autoroute
betw
obbligato
coch
fig
vita
kercha
exo##
hera
##ach
burin
meerkat
ear
gift
pedestal
lectern
pallid
vert
lindisl
conclusive
quadri##
##au
showmance
vocalic
dissociation
math
adroit
tsesarevich
gay
stigmata
sporadic
tw
hanna
puppet
##ruption
sanguine
haemorrhage
esquire
firefox
etiology
harbor
moss
implementation
phlebo##
aviation
jordan
duchy
morgan
marginal
lepton
centrifugal
torp
envelopment
catalase
darlington
cantabile
testis
sociable
chutney
tuk
eager
billy
oscillation
obstetric
languid
mate
antwren
hof
theca
parchment
guile
zab
sabino
ka
steal
five
mudd
gaucho
stair
inquisition
##ram
fluorene
listeria
plaza
coy
grand
wire
grimace
converse
dyou
legislator
mucin
extrude
artemisia
margin
puna
basin
delude
##therm
bummer
accelerometer
notum
state
cigarette
consp
striate
dna
ro
sensitize
first
pyridine
lahar
cheirogaleid
accurate
baleen
vin
##zaq
magnanimity
estivate
colourant
dusk
pediatrics
hybrid
pawn
spherical
seneschal
labor
portug
liquor
yog
reluctant
arachnoid
twelve
cas
##ue
hel
drivel
celiac
clado##
ascension
chaplin
incubus
baa
orch
latex
quesada
identify
beatnik
coomer
funnel
dietrich
crompton
frequ
poppy
whoosh
wy
tough
casco
corporal
tessellate
plankton
solubility
bylaw
ay
##atan
zygoma
codon
york
patrol
illiterate
marimba
bloomer
independ
radiance
poem
nib
irrational
morris
moist
vowel
genetics
grin
idealist
stomato##
scupper
taenia
emit
##en
gauntlet
discomfort
kurt
##orate
tu
josie
crack
##ena
execute
lull
mellen
filbert
baxter
lilac
alfa
caution
##line
debonair
forte
broke
##iant
allspice
obelisk
symmetrical
plagio##
pagan
planet
banda
plight
##ivial
grad
##peror
##ffant
adriana
tittle
vicariate
rhodes
marshal
inhale
pelican
bohemian
timpani
fald
thymo##
tonnage
dest
headquarter
mulberry
erythromycin
##odynia
rhotic
kyle
fake
reprimand
affective
pipette
heth
hajji
phallus
occupant
financier
hor
##llite
eel
gopher
fealty
hawaii
bell
weigh
##setter
histrion
calculus
alp
knowledge
tassel
vent
lipo##
detritus
salt
muj
xeres
allo##
fifty
know
iconoclast
quebec
##rance
insectivore
##lie
washington
ranch
grab
liquid
hi
immigrate
prenol
imp
miranya
disenfranchisement
withdrew
rhizome
sulfo##
dom
hoon
ignore
cot
shouldve
pugnacious
vitamin
bombard
halve
creole
arachnology
vulner
##venue
diatribe
emergent
dismal
sagger
conflict
garibaldi
howdy
instrumental
strategy
nuptial
combi
summary
dennis
les
chore
anion
marchioness
ama
debate
propriety
mene
twink
reck
atheist
bagpipe
lamellar
audio
yearn
prosthetic
muon
crayon
habitant
iman
hyacinth
lima
gyro##
ing
morph
enap
zo
courtesan
chicago
irreverence
muhtar
sebastian
##ostok
snead
satan
resentment
coun
stake
trapezoid
curtail
seductive
requisite
dor
saxaul
efficient
report
trevor
##bec
hyp
rickety
rote
conundrum
ali
helical
phyllo
cade
where##
pompadour
brandle
detonate
dermis
acceler
partido
##round
expansion
retard
beau
manor
satisfy
kinnard
kestrel
centrum
ayu
riata
hygienic
stow
catholicos
situate
jacobin
submit
numeric
precise
vanadic
somerset
cyto##
fastball
confraternity
bleak
##fe
tenon
reluct
ungual
epoxidation
ll
pub
govern
locket
valerian
heir
because
role
ky
skip
fluoridate
##onym
bogatyr
rigorous
sacre
menstruum
zapruder
helen
manife
pelvic
mauve
##part
infatuate
##iness
##uine
anniversary
effusion
locus
pierce
salsa
mase
##ruder
resolution
tilde
reliant
illegitimacy
dive
##ien
cur
labrum
entomo##
sec
coole
cuisine
tackle
perrot
##bell
baro##
petrify
somber
repulsion
purveyor
razor
gaffe
bergh
lamia
##ceive
repent
conglomerate
poignancy
fleme
oppression
##now
sing
##erv
dungeon
alibi
##wahi
brody
reverend
lindy
sagan
##ary
swaddle
dresden
pepsin
##eme
or
inundate
infamy
horology
##ipp
publicist
kazoo
rumba
rostral
clement
fuchsia
monopole
palette
bode
vice
alef
##ock
mutine
orang
lice
nek
prolific
##scape
sapphire
##l
elliptic
adverb
cephalic
cush
selen##
pygmalion
coloratura
recalcitrant
trap
gather
persistence
strangulation
whippet
hick
trimester
##ites
kenshi
stuck
col
tail
appreciate
##aught
baron
zior
laureate
gruff
etch
intention
##otl
bulimia
blotch
metamorphic
eclectic
moray
ante
regnum
adjoint
m4
philistine
scala
confident
punt
hundred
placebo
who
core
cooperative
predicate
middle
azo##
hypochondriac
snee
sug
revolve
triplet
fairbank
hullabaloo
corundum
pow
##ulet
bombe
swive
ques
reduction
yeast
disc
confide
siddhi
fluvial
fluorescent
##allen
captain
mujahid
ley
tur
center
gerrymander
sun
ludo
essay
bugger
##urg
drome
ecto##
brian
er
solid
metamorphose
pontic
conulid
wonky
specie
##bl
chime
finance
genealogy
candor
##ution
intrusive
halide
##ember
apricot
euphausiid
##aret
squalene
yukon
mirza
hob
hone
##aborate
cardial
evade
asymptote
grass
krab
out##
possible
allegorical
naz
spandex
trunk
episode
breed
##came
registry
candelabra
schlock
hardnose
articular
jia
largesse
kshatriya
gibbet
gym
fortnight
primary
galleria
fleet
mammillary
press
zorro
quadrant
optimise
fountain
toul
##stat
amazon
cadet
amphipod
blizzard
ober
halal
borax
logy
diablo
waqf
##ublic
english
##olves
upon
pruinose
conflagration
olive
##aked
elses
dialog
dint
notoriety
hypocrisy
opportunist
continent
discern
blog
maur
##esar
dirham
discovery
martini
prate
heart
pers
deuterium
bromide
hepar
dewclaw
haggard
copro##
jaqu
pennant
palmyra
##spective
sleight
moribund
glob
furtive
mangel
phasma
##8
##ask
allahandra
duodenal
casuarina
##far
espresso
vassal
naive
scalizi
kitt
consular
inventory
##ur
##ia
hydrogen
degen
##ul
fflowers
retention
mandamus
pubescence
strick
hoarse
coleman
intact
conse
lehr
hansel
stagnation
schism
lilt
clock
juror
##in
germany
smug
bear
##ong
kend
bust
guard
##han
loa
forrest
##jord
urbane
sympatho##
expediency
morro
angular
acknowledg
septa
practicable
scar
repository
germination
rhabdo##
bimbo
quirk
bit
disorganise
sol
thelium
foyer
erratic
portuguese
jeer
interventionist
algebra
author
anhur
thalamo##
laminate
dobro
adenoma
microsporidia
ess
recollection
anoxic
envoy
temporal
gradation
wyn
scenic
gel
crutch
disney
gran
hendricks
ferri##
concurrent
collier
ii
raga
scoop
refuge
humil
luca
rotary
noby
alter
rich
penicillium
wuther
bottom
serene
quint
rubb
##ross
plantagenet
lev
intubate
prescription
alba
picnic
bauer
marijuana
microbe
office
salticid
samaj
##lynn
endeavour
mutilate
minbar
spare
ragtime
fabrication
propense
mujahideen
caption
flapper
thalidomide
zel
terror
bum
vascular
resto
nutrition
193
recollect
delicious
william
katipo
kinematic
dopa
opiate
globular
shrubbery
theod
spaniel
sax
pendentive
atrial
garish
oxazolidine
tarleton
##iger
stallion
tok
votive
:
said
pristine
corrode
philomel
horne
amok
empiric
rhodocene
package
##so
fruit
bordeaux
congreg
winne
spinor
brahman
facultative
feign
palgrave
ancestor
davy
racism
cust
task
sophia
fiona
##keley
##like
penultimate
##tel
kolee
reticulo##
geranyl
##ection
pummel
ventriloquy
hastings
agate
privatdozent
leese
habitat
##bert
##ific
gar
lakh
oedema
titi
executive
sarkar
globin
edible
enoch
friar
open
voyage
praetorian
flight
fetid
##nard
baldrick
confer
eternity
##ping
excommunicate
gantry
erectile
inquest
sushi
midwife
terran
evapotranspiration
tobe
snark
pussycat
grimoire
flavour
sudan
hoot
##cess
emasculate
dynamism
verve
glyco##
hackney
rebreather
glasnost
edifice
##ology
bacon
ash
encyclopedia
sealion
profess
coronation
hunger
ninth
exhumation
riktenburg
reparable
applicability
annal
albeit
kilometre
worshiper
aqueous
stripe
sceptic
markup
writhe
gravy
kobe
hogan
emend
orleans
excommunication
detective
instructor
ney
marx
mort
villa
moulin
hare
anon
nix
candy
well
sakura
employment
##eros
covenant
monetize
##qu
administrator
snooker
dank
fumble
adulterate
win
tolerate
plagiary
##olution
duiker
uitlander
cath
muscat
waste
kit
swann
silbra
medicine
convenient
shelve
diabetic
jangle
##ew
bhajan
dine
instance
hamburg
sil##
suffocation
##arr
curative
196
lexicon
epoxide
add
braggadocio
tally
cannonade
haddock
oppress
insidious
retro##
purse
counsel
inscribe
antipathy
hogg
postpone
miguel
linebacker
ju
##algia
hallucination
9
en
tambura
parietal
redundant
coa
bumble
relief
evaporate
stalk
schiller
ubiquitin
linnet
##omen
##omenon
cydippid
dorn
reno##
bozon
tourney
lacuna
sperma##
##stal
##uit
righteousness
accomplice
##rib
history
bake
stereoscopic
wraith
wore
intermediate
aster
elegant
lid
fissile
clothes
##erest
dominic
trig
sampler
##ston
joist
##woman
preferable
iowa
comparative
keith
hand
ian
sea
house
trinidad
ruben
moa
predominate
admission
tectonics
fibrillation
contend
trivium
mechanics
stamina
epistemology
chew
warfarin
cystic
##geon
creyson
contemplation
takedown
magnificence
##cide
mamba
cacophonous
collard
pur
emaciate
bargain
siemens
afraid
creel
##ount
free
hesitate
dism
nov
##mac
coomb
treb
variation
##mpt
belch
retina
alexius
gigantism
amatoxin
logothete
phalanx
36
crumb
privity
wrinkle
sust
liquefaction
hammock
seismic
habitable
squirrel
bolshevik
missal
medulla
hellen
accessory
beleaguer
##la
##retion
sharrad
robbie
##ooth
ascus
antipode
norton
uridine
erudite
plenum
spanish
monaster
rica
mint
##adia
telegraph
##entier
itch
jabber
particular
modify
professorial
valent
epidermal
##eous
tympano##
cleric
light
latitude
succumb
##ani
##phore
##op
wait
cornwell
kowtow
warrior
firth
suffuse
tod
attainder
harmonise
fizzle
venation
carvel
quarter
hayward
maklav
lollipop
pisco
redd
kenslir
##ode
coracoid
mallee
armistice
generosity
scrawny
provoke
cistron
carina
avatar
ligation
plastron
fab
vostok
mechanist
lipid
paris
crawdaddy
dense
triton
jessica
crystalline
important
##joy
solution
##antage
##bra
gin
pharyngo##
nug
conyn
staple
griffon
forage
poke
##rible
phaeton
alienation
measure
contribution
##ration
apocalyptic
glove
syringe
belah
merino
pasteurisation
transitory
carbine
##urate
speculate
##ich
dolicho##
orthography
mademoiselle
freight
elain
jin
stood
spermato##
contradict
jun
term
ep
oeno##
absence
miriam
gps
choc
rabbi
grim
##gard
manure
magenta
sphinx
taciturn
solstice
energetic
archer
caper
trad
heritable
dumbfound
trypano##
macula
blame
sinuous
elder
##ull
ripple
damp
intrude
enzyme
marcel
annulus
mockumentary
dev
cic
tamarind
humane
amine
brachy##
ravish
peduncle
osseous
gerbil
behest
front
##rect
concrete
marcellus
eisld
factor
exalt
colonnade
##onde
thy
discretion
militarise
foam
sak
##eth
employ
galax
osseo##
##burg
##cuse
kore
functionary
##ist
span
elizabeth
uhlan
eame
cygnet
transmissible
sociability
jhahn
compulsive
##troph
calendar
exasperation
packet
matra
junto
macaw
pluteus
olivet
##gur
couch
tumour
jocular
soh
machismo
obsolescent
faulkner
suppress
terrify
confederacy
snot
strut
balmoral
fennel
kook
crinoline
probate
derma##
philopatry
dight
insatiable
train
##other
extort
girth
patriarchate
mischief
men
##hem
cale
notor
esperance
hoe
wiki
class
vide
##arent
adj
goon
probably
sanctify
mont
##atus
jolly
sobriety
hypertrophy
bleb
lozenge
ait
mouton
continuo
antinomian
wok
astatine
mezzo
myspace
persecute
##tala
barrel
deter
valuation
encephal##
pluto##
owens
fritter
lily
equity
zygo##
inspire
invert
##ek
##rubicin
##aneous
aker
retro
i##
masculinity
rope
forensic
##ian
city
rapporteur
scrooge
rube
katharine
hunk
ensemble
remunerate
hain
von
strike
mistral
pac
pique
enol
babu
ironic
mega
occult
cart
hesitation
##shire
din
excise
gluta##
cosh
allelo##
##ista
drool
enamor
glam
auction
kart
retreat
discriminate
ejection
masquerade
delineation
panzer
cunnilingus
ylide
inconstant
relax
revivification
19
policy
ingle
mashup
goggles
##ety
gema
imitative
carp
bhakti
donner
shy
dirt
loop
##illac
turpin
charlot
mariposa
welham
tol
patriarchy
##etts
flux
tetrarchy
mau
languish
ferro##
gray
incisor
loony
endemic
uran##
mamma
retr
bedridden
near
commemorate
brown
abridge
err
tubercle
amphoteric
indian
arsenide
dictionary
colony
progestin
##agnyn
##iction
dour
haloperidol
pla
logarithm
honda
man
imbibe
bigotry
vertigo
too
hakea
reign
##spect
morpho##
pronominal
invade
neuro##
mutagenic
amyotrophic
taiga
woe
civic
tachy##
valiros
tain
device
deportation
tongs
graphite
compilation
jeff
gov
turb
hedonist
seritu
exception
trium
ghazi
compaction
own
zona
success
nymph
exothermic
yana
##acht
milt
##nak
##ded
romanization
marble
ensign
herald
##port
##get
pervasive
solicitation
smack
prec
texel
midst
prohibition
langley
##lage
progeny
bauxite
echelon
extemporaneous
slaight
tilbury
catarrh
rou
kemp
discount
genius
curriculum
baryo##
clash
triglyph
grovel
gate
exonerate
tweep
##thest
muni
condom
##andar
##arf
disarray
fleece
##atch
##apse
impressionism
telomere
dobbin
##punk
lou
ideo##
infra
divine
swaraj
cake
alma
invitation
alec
prem
dimin
##no
chula
assimilate
escape
cinematograph
nil
##ernal
placenta
gadi
audacity
syndicate
value
enchant
intelligent
chest
nidal
thin
assonance
contrapuntal
coronoid
ko
##rons
ischemia
melancholia
introspective
champ
paleontological
narcissist
complainant
globose
algal
gracilis
barrack
rendezvous
verso
jer
counter
thrips
gymnast
eliz
glare
spike
naos
hertz
austria
fuhrer
lucent
southe
impute
humanise
glimp
applicator
extenuate
dressdon
or##
burnout
##ber
saree
blare
antelope
##lique
caress
bucco##
yer
tyson
hyde
segment
embryonic
ilex
dam
burro
woodruff
habitability
cycle
mediation
ign
up##
promissory
##ones
restr
gadget
wifi
emery
coil
immuno##
##pathic
conditional
my
therapeutic
peel
##ii
pyrazine
gyrate
polluted
##hedral
fa
iridescent
carl
abdication
inexcusable
mount
omen
voe
proximal
disinfectant
quail
interdict
doodle
plasmodium
migratory
literary
pillory
##ption
nangka
button
##assin
instantaneous
syncope
waka
human
effervescent
impetus
28
bastian
chemo##
earwig
bahn
strand
##ridge
tracheo##
architrave
tame
pl
brewster
megdline
u
eric
meager
continuous
neuro
rut
defray
anticipate
##eld
beluga
semblance
college
avar
nong
tana
boolean
molar
consequence
oral
vulva
annotate
yayo
splanchnic
condescend
pet
haul
##berate
nicole
clathrate
tala
maneu
oklahoma
gyre
hypothesis
ravelin
nomenklatura
vox
chakra
tussle
ulna
whit
anx
grope
bole
urinal
their
appe
diam
##inas
leed
tron
neolithic
hack
constituency
nobel
synapsid
academic
glottis
root
beat
detection
stall
induction
pick
paternoster
ubiquitous
examine
arbour
ruminant
##ander
vulnerable
subpoena
rectang
mous
glandule
prebend
signor
##15
##ans
##ente
helio
conid
##illes
tutti
all
ire
kodak
flyover
court
##ora
luc
downtrodden
mini
inseminate
oxidation
cam
krieg
appel
biennale
discip
congo
visco##
junction
buzz
whatcha
##olo
epitome
interpretative
coterminous
culpable
staphylococcus
barrington
ster
ingen
katree
##ep
mit
##uber
friday
poly
##agny
phare
inject
rodent
hound
commend
systole
leper
auto##
kurta
dame
pronunciation
gina
fraternity
cadmium
acquaint
sala
##acon
##maniac
terrific
mosc
brisk
dement
esper
artist
wyvern
effy
kala
burnside
craft
##isco
##ray
ipecac
burlesque
##igger
myster
##asion
##ja
canary
bunton
##onymous
##ians
standardisation
abraham
maud
policemen
samarra
stoichiometry
corollary
##rease
ember
spastic
buffalo
melatonin
docket
toast
cohesion
thallus
gubernatorial
##yn
brook
monastic
derisive
exorcist
crematorium
onto##
null
morta
##llow
influenza
kai
gammon
knell
engine
isoprene
trebuchet
rep
site
ignite
ek
grub
deification
##heard
becket
snore
ransom
##oshan
caries
poetic
withdrawn
lath
balk
sharian
divest
machinima
##auss
senescence
bombardier
duroy
fane
taut##
contralto
melano##
campania
vivacious
ameer
mix
ther
ribbon
iran
marla
tomato
tilly
piazza
##hol
protrude
trenchant
carpel
indy
wicked
dantes
chelating
implausibility
verity
barb
thieves
andromeda
nephro##
contaminant
repeal
lade
disastrous
domineer
##nday
principate
itll
migraine
piperazine
grumble
stipple
corp
machine
ferry
rotate
yazoo
yield
coffee
tartan
##wan
uranyl
fictitious
portcullis
cafet
board
calder
microscope
brave
furniture
dentate
prime
cluck
milo
coron
lisle
marcell
jasper
operability
kaka
mademo
nether
frivolous
traumatize
again
toy
trice
##rous
grampa
stare
carolyn
apart
islamophobia
cascade
le
chickenpox
cannula
subsistence
friend
pleasant
macro
ejaculate
##ousse
scotia
drug
ingress
##uster
##rol
ceremony
pyrrole
draco
explicate
##jee
motor
##war
infamous
stane
does
##aska
pred
fort
extensive
velve
socket
delete
whorl
curlew
cellulose
hippie
60
prism
fol
evocative
reids
several
rive
contemptible
gabel
corrosive
feraun
##asha
breech
trematode
kosher
frigid
chanson
casual
inscription
##ca
religion
organic
fredrick
anhydrous
abortive
billys
hawker
cass
pianissimo
visit
juju
rhime
ostend
clear
sour
bev
request
alpine
brought
mel
amphitrite
debenture
canterbury
doab
moron
##ane
assume
synth
##go
tsunami
pilaster
siliceous
spit
babysit
assuage
altiplano
charm
parallel
caucus
##eague
quaestor
##aining
kappa
postero##
saccade
dorsum
orientate
stryk
ete
posthumous
rupiah
lutra
eazy
marian
moola
hibiscus
cohabitation
mandayala
ketch
mangrove
quaternion
cashier
nigga
athys
beheld
##ought
attempt
bosun
rationalization
##viet
leg
radio
bish
ziora
diamante
devise
nodule
empathize
vindictive
urinary
##they
thorn
valir
stearic
##ha
ecstasy
ambivalence
pylon
cossack
kiva
mannan
tabernacle
gue
hilda
##onel
uther
platinum
spin
glamour
liman
##oma
iatro##
grammar
kaig
low
swag
uproar
perfective
yoke
dynamo
chaytan
phil
appre
speculator
sinusoid
configure
amiable
savagery
outro
xin
skilful
nadir
anguilla
maister
spot
cause
tahn
terbium
##and
broncho##
##pent
custom
stag
agri##
question
cardiac
minotaur
acrobat
porcupine
obl
shade
marvell
imaginative
have
jen
freehold
annuity
extinguish
$
posit
neem
embroider
indigestion
neo
heterodox
incinerate
lamentation
rosenberg
##pod
yumi
imbricate
hulk
dist
yajna
chamfer
##onymy
phago##
wouldve
madder
brahmana
pampas
corolla
pea
secondary
splendour
nieve
wight
pitch
plaus
annoy
kray
catalyst
compassionate
copy
thermos
lumberjill
##tto
##ier
palsy
ent
tra
slide
arthur
##aw
medallion
plasticine
encourage
gravitate
amicable
phot
incarnation
electro
mash
masturbate
magnet
lexie
ecumenic
prophec
##rase
clasp
protuberance
abandon
coterie
##amp
reconcile
cottage
narcissism
##w
leasing
seleucid
invite
gordos
vicente
selenium
deed
gasket
absorption
midget
portable
##ris
comrade
dromedary
gracile
pollution
hoodoo
pizzeria
##imal
ked
skirmish
despotic
##mar
stre
bunker
abb
##istine
sade
effluent
wilderness
recon
zapote
relegation
carriage
junior
pee
transp
silhouette
mood
prana
vertue
vomit
sorghum
veterinarian
tri##
conformity
mad
sarc
emeritus
jund
geranium
tartrate
immigrant
hell
disgust
vainglory
swindle
passable
##utch
spir
lind
vinc
aim
scout
mandapa
altricial
crave
surname
##reek
butter
fair
##morphic
##oint
##irm
persecutor
shawna
calkin
indigo
scrape
don
lor
^
##ombie
brie
inoperable
kraut
recitative
equitable
solemnize
indicative
centripetal
##ye
slat
prose
acetaminophen
magellan
mas
peddler
##eez
kovat
jean
residual
fluent
##ee
cons
israeli
lambda
gabbro
ufo
ankylosaurus
manhat
##te
elephant
doppelganger
encapsulation
ryan
century
##omb
tid
alsatian
customer
mediator
water
c
case
##acle
interview
clatter
ethyl
jubilation
rambunctious
sarangi
sockeye
studded
morrow
parade
##ji
laver
winter
avenue
carle
heredity
aragon
psilocybe
tandem
jamb
generic
governor
coerce
shroud
##aph
millennia
laze
april
curtin
valvular
tarn
fiber
metaphorical
persimmon
foliate
plantain
villous
chim
binomial
tuxedo
cerebro##
promiscuous
turbid
sult
macadam
jazz
skirt
##smen
cress
brogan
fridge
##gg
gourd
cargo
coyne
prolong
cognize
##iet
horrific
dismantle
d
eider
devastator
geometrical
matte
gangrene
atal
##ru
latina
minke
glycan
ogre
deceptive
assumption
obsession
roto##
fantasyland
tetra
lonnie
reich
june
collagen
cordon
infertility
tele##
yet
hula
connie
evident
overshot
nerza
catalytic
##k
cavitation
tecuhltli
pan
liana
paycheck
baht
ce
carpentry
herrenvolk
atlantic
contusion
reportage
underpants
key
suffix
follow
inter
reredos
great
locomotion
fog
vac
##ords
golf
##rat
hoar
##men
ut
vaqueros
skye
clinic
neve
dioxin
ingenu
angio##
eryk
##bor
crane
pulaski
tock
##inder
prefix
didactic
dyslexic
pancreas
roman
pun
resist
villene
obstruent
brief
cee
##alt
sunday
despise
formic
covet
illino
##ib
taser
juxtapose
forensics
carousel
deprecate
rejection
force
santino
subsidence
independence
pup
ino
must
snakepit
remission
bight
spiro
nominative
fin
##ilogue
bough
adulterous
frat
##ah
##ndy
musket
leisure
especially
fuel
fez
edit
nurture
ally
tyer
obey
hus
trey
caricature
tureen
palmetto
eave
##ondorf
expo
king
dacha
likat
##ore
harvest
entertain
homage
replete
##gamous
cursorial
camerawork
evolve
##cy
lorisoid
centimeter
##alk
mile
mouse
scowl
carb##
lib
auricle
lorelei
invention
classification
oxalic
repudiate
mondo
rasp
nomenclature
spyder
cro
adreno##
yin
quiver
homburg
scavenger
varv
sanctification
irr
seika
aggress
velite
mythological
lard
excessive
improv
oriental
parish
cultivation
kymo##
brunt
defecate
freder
dismiss
incongruous
mmol
sigh
trocho##
sot
circumcise
speed
unison
rid
pore
mall
dumpty
peeler
chartre
deca
direct
marv
dowager
sub
squeeze
deciduous
groupe
condemn
knockout
memorable
defective
pistoles
garde
nitrate
calligraphy
remedy
stegosaur
bungee
heed
mnemonic
pretentious
almond
ravine
respondent
brin
endorse
omnipotent
har
meta##
wang
scrimmage
##ouch
overt
conquest
impanel
visa
##ysis
sedate
##igation
expense
sooth
subversive
testicle
ransack
roe
evacuate
crytore
sipe
bliss
kink
hydroxyl
peyote
herbal
dossier
motive
trefoil
nebulous
coquina
roy
chappell
projection
crang
liftoff
eschew
bod
remark
prefecture
seax
glockenspiel
exorbitant
molybdic
mesohyl
myriapod
doxology
##ectomy
##cuss
guzzle
heme
gneiss
rema
shootout
gamelan
babble
mescal
lance
haberdasher
jowl
nocti##
toledo
posada
minimax
quasi##
##sploitation
soken
froze
madonna
dope
##leans
blip
carboxylic
tuberculous
section
bulays
##ink
slava
yosh
poverty
compile
aleph
surgent
repose
cortical
alakar
meadow
##ress
preserve
skys
warren
diarrhoea
finial
timema
elastic
salmonid
larceny
bl
spruce
impel
enquiry
##ake
adenyl
fibre
morass
voll
torment
yeti
hir
sabbath
indebt
aspersion
anthro##
consolidation
dodd
nelson
##vey
fray
guereza
andrews
circumcision
apparel
sequester
lawrence
desolation
droop
dinghy
pickaxe
admonition
telenian
rancid
maxim
ens
shrug
melvin
greet
opinion
maurice
communicate
imidazol
kaleidoscope
fiesta
op
militarization
cowper
similar
rotoscope
introvert
landscape
impro
blonde
fiction
treason
gibbon
mercen
rump
inflection
jugulum
tian
cornice
manhua
homer
cutler
tragic
pah
shale
bastion
eu
meet
glim
matzo
bos
ailuro##
##inate
crummy
toddle
changeup
##ict
iwan
dubious
menial
zealous
##coel
mexican
bolus
wane
semester
tuition
rescind
##allenge
tequila
safe
void
polarity
expatriate
contractor
syrinx
justiciable
bach
rhythmic
marischal
embroidery
deleterious
deem
carbon
chron
odonto##
supp
asylum
paan
##mell
assess
enchantress
pretense
recommendation
gote
reed
pigeon
manga
credence
-
lust
##breaker
lanier
cyclops
deprivation
larva
fuselage
rolf
critique
emote
extrapolation
permeability
roll
shiva
venue
sachem
rat
mesmerise
belfry
nikol
volk
arithmetic
gonna
lum
luxation
commando
mitt
jophie
##enty
roster
splendid
menthol
coalition
repugnant
on##
flora
sterling
should
afro##
atabeg
sulfonic
occidental
dim
doo
##ade
prodigal
morita
vada
viability
bethe
doe
dogma
enthusiasm
compel
radial
collaborator
job
feather
postern
chela
calamine
suzuki
dative
seamen
cellophane
feminism
fenestration
igg
comprehensive
telecom
deterrence
god
nippon
specification
hutton
mazer
michael
layla
grange
fift
hellenistic
ruin
97
pardo
murex
frontispiece
cajon
lent
fulmar
macdonald
gillie
jonathon
indriid
argon
2
labio##
##aun
palpitation
eruption
swam
lullaby
caribou
crescendo
flammable
mullah
embargo
stad
immunize
oxymoron
arraign
evict
sculpt
anyways
coll
bracket
clime
conception
##inth
hippocampal
competence
ot
steato##
doctor
reciprocate
huang
obs
petunia
devata
decay
governance
##press
spent
chameleon
corporate
bucca
##ality
goombah
mitch
##sie
##ready
replicant
lactone
lyrical
stimuli
puri
voluntary
##ave
belong
tata
onde
clarinet
##bot
game
letdown
byte
succubus
squab
vintner
vigilant
##end
adsorption
victor
##mon
valse
marline
witch
rab
cognate
flake
demo
parental
death
boud
disambiguation
card
cuspid
kris
duet
salpinx
thumb
longshore
extent
sira
chalybeate
fragrance
indifference
elasto##
soy
hypo##
##ench
hostel
aromatic
resorb
transcendental
dwarf
##morph
happen
lero
perpetual
taxon
irreconcilable
debacle
corm
holland
hierarchy
code
escrow
centralist
canopy
barbecue
town
prebendary
##ai
shod
idol
woodroof
merchant
provisional
termination
comp
kerogen
bicycle
wasnt
bilirubin
heather
blight
enapay
500
congenital
frame
abbacy
sansa
kama
bacterium
breakout
serendip
serous
micelle
slave
sa
aryball
erupt
queer
nab
##ige
cresol
parole
oryzomyine
##rection
saul
chine
gaunt
milliliter
gwendolyn
stupa
liane
translate
classify
estuary
ambulation
woad
manta
##as
rhinoceros
sardonic
terse
linda
qualm
wanty
sloot
malaise
shahin
anne
erlan
##lepsy
gait
klipspringer
chan
lavish
##ce
sfax
big
registrar
hydrous
mang
maritime
kens
serrate
crete
fetter
anima
mendo
sault
lycanth
depos
amaro
gyle
sequel
##osc
inforce
fanatic
top
gluconic
portraiture
allotment
finery
efficacy
cubeb
prefigure
every
gypsum
substantiate
tench
itd
uniform
##issa
##fest
very
scotland
##iss
pedicle
drewbell
shift
malo
feminist
obsess
disperse
plebe
coital
orthodox
proficiency
ditch
##reh
our
breach
##drich
humanity
##nym
quell
emcee
precede
favourable
knock
turbo##
single
stamp
sere
abs
breast
bersamon
ardith
nam
mortgage
infiltrate
practitioner
%
blatter
flotilla
lopez
cig
glacio##
nige
fowl
clumse
##walk
spect
proximo##
atheism
language
reasonable
parenthesis
tripartite
theme
loyal
grouse
kingside
work
incorporate
probab
par
begun
christy
whirr
fembot
fascism
aviary
apatite
disclaim
jaundice
fee
vasectomy
realpolitik
dur
helix
aam
gro
oracle
##us
illum
assent
prima
garnet
mote
alexia
scarburg
harvey
aorta
##ius
polyphonic
predictive
begin
hird
paralyse
umbra
howitzer
anemone
dav
broil
flute
ophthalmic
swing
magisterial
##anor
capsize
manacle
atman
##ingham
diffract
femur
noxious
kitten
subst
sal
dargah
factorial
seep
lethal
garth
alleg
pathology
transom
condor
define
celest
tweet
simian
phillips
busk
wag
croydon
abdomino##
bucky
population
coda
##ographic
cocktail
pidgeon
##not
tindal
emphasis
japan
alpha
fortune
compensation
pride
bot
##vers
lia
quantum
snug
susceptible
pulmonary
ginger
podium
caudal
apparition
extract
trudge
utensil
proviso
pantry
##ish
monism
madison
maim
cellar
pho
##na
levin
frankfurter
microraptor
21
with##
coco
ting
lake
bricolage
actin
competent
solicit
european
puja
gadge
wardrobe
vegetable
adulation
mus
impress
fuzz
neither
##itory
##esy
napa
inductive
fuse
yucca
busted
sword
dealt
vanguard
##icycle
whendy
pastel
apo##
caldera
##plic
priori
trilogy
##abul
gain##
vitiligo
intercourse
kola
whitlow
dervish
grig
cave
immortal
verify
privet
laur
##unce
edie
cen
bracken
##ola
columb
slumber
boi
witchkin
##ball
glycero
rollick
ghost
##entic
aldosterone
laparo##
suff
daman
significance
chieftain
##lar
pulmonic
cholesterol
mobisode
hypno##
pilfer
lamina
phono##
hornblo
amorous
rhetorical
##sis
jeweler
bahadur
goitre
inner
approach
chichilia
adaption
rele
teleport
##cline
quadrilateral
cuddle
surfeit
metabolite
wiccan
plane
compar
patty
monadnock
period
ayuntamiento
disfigure
attentive
wey
bachelor
neat
sampson
ale
ample
vireo
circuitous
blackmoor
hadrosaurine
##irl
candle
haz
depart
prograde
mexicans
instrument
pede
##side
pollute
smock
prissis
##ular
##he
cred
##shold
nva
impediment
vom
scr
confection
insurrection
curn
collar
mob
beard
jul
drive
mention
toft
oneiro##
furl
bour
mutant
melaleuca
con
region
oddjob
barfi
vasculature
folic
whenever
monotone
confluent
hsien
rubidium
moderate
ligno##
talc
audition
fiance
sitatunga
desecrate
provo
textual
scenario
repatriate
##opsia
lode
hammer
traitor
tusk
arkham
bolero
kiddie
ur
throw
tennessee
adapiform
horrendous
forthcom
transduce
exaction
shone
##ini
perception
choo
greg
credibility
wolfe
##megaly
##derma
clapboard
idle
loris
sycamore
raph
##lom
taxonomical
drought
whack
fug
melt
panorama
therapeutics
scandium
ralphie
stoichiometric
bandicoot
propose
stowaway
deformity
confederate
grinch
tenure
arbitrage
hodge
persevere
orgasmic
##rick
reverse
legionnaire
florin
faire
federal
bind
coitus
parishioner
sched
contortion
##ira
##oire
unit
##enton
acyl
advise
mandrake
precision
convent
brothel
pash
phyllo##
subterranean
veal
prejudice
collage
traverse
hoop
impatient
conule
demur
titular
arid
phyco##
swoon
grille
dilapidate
obligation
contort
spe
lophophore
malachite
legato
hartebeest
connexion
granger
abject
gallium
ileo##
serekh
ennui
huck
mucous
sant
communique
##biotic
cortisone
feal
mesial
mausoleum
nikolai
##urs
mystify
miniature
pate
enmity
chaplain
tephra
##bard
noble
tallboy
vary
pedagogic
incarnate
correlate
##arez
able
lisa
bren
allan
uranium
july
conidia
accustom
conifer
cay
flite
sinfonietta
symphysis
ecclesiastic
ammon
face
beautification
wain
monosyllabic
brachiosaurus
enemys
ute
executor
palenque
lunge
cnidocyte
##law
gloom
sonic
musculo##
topographic
spectroscopic
##ividual
partial
hidalgo
dishonesty
install
biathlon
zack
crush
understand
capote
jamies
##nesday
##ean
cursor
faun
##esce
super##
archon
greek
multiply
latinize
ferocity
mascara
corn
negotiate
omniscient
serious
at
hadith
sedative
terra
aba
dso
nominate
bong
embalm
permeable
cranch
albatross
layoff
grocer
torus
ridder
mull
temporary
tamp
oyster
mendicant
cotinga
nor##
drama
mundane
##rawn
dharma
joph
carval
tose
##name
heck
cristid
mutineer
solom
alc
sauter
specify
immobilize
poach
geek
couchette
graben
ix
maple
bother
exclamation
mullion
charlatan
progestagen
7
impunity
bohemia
gavin
harpoon
sincere
launch
visitation
soundstage
impropriety
myelocyte
contin
commodify
copulation
bolo
reentry
lambeosaurine
stolon
nith
denise
encrypt
bravo
docosa##
den
lim
changeable
calve
rak
goble
krater
awk
trouser
rife
evoke
linga
camden
dent
priest
terminus
recreation
jurisprudence
poss
manger
##ct
clitic
motion
ul
cache
devon
franklin
preeminence
armor
edibility
tincture
matts
##mos
race
sire
colt
touch
renal
hotelier
##plegia
altar
cricothyrotomy
potassa
futile
topography
fundamental
crimson
conscientious
demagogue
justifiable
disparate
evac
aventure
mech
##doxy
attaint
glow
resuscitate
myth
emancipation
auxin
pursue
dookie
pollock
betta
doze
symptomatic
slack
samarium
bryn
halibut
beige
fath
plum
tula
coagulate
patriot
ravel
theremin
thorp
typify
honey
atmo##
portage
aurora
oligarchic
schwa
test
shoe
stephan
splatter
bling
omer
tungsten
##peration
marvelous
odd
ouch
urs
flame
##phem
forgery
plica
hush
brend
arboreal
epsilon
##sal
surge
moran
trichome
metaphor
cassowary
cormorant
aeolian
cubic
stun
margarine
troupe
##ven
behaviour
woozy
impenet
ponder
possession
dawson
slum
hagiography
figurine
adult
budge
retcon
position
tibio##
skilled
boone
belove
jackys
calf
venom
meer
sali
pit
rani
contravene
puberty
nich
spade
rabid
##att
boreal
vietnam
barangay
levity
sh
gaol
jove
creep
nitro
bis##
hungover
ernest
scenery
disdain
mollusc
myopia
cuckold
melee
##uard
aut
conspir
doubt
##apt
leash
astro
neils
mickey
use
viv
goodspeed
jibe
brady##
colo##
nahumik
vet
mastaba
ought
ricketts
##blo
manticore
sanitize
starosta
danish
##m
flerov
camel
##iable
entreaty
sarcastic
##erce
anesthetic
equine
azide
climb
diplomat
ento##
phalange
phonological
##din
milli##
monogram
coalescence
fad
smelt
kraal
dwine
pareil
shetland
albacore
tim
weld
janissary
dentil
clitoris
from
alder
feoff
lucifer
dreck
raw
ridge
lion
##vis
vir
twitter
pinniped
atelier
remonstrance
naphtha
##ert
claus
sarge
margarita
dem
bruise
solemn
auditory
profligate
carr
castle
gre
ultra
##ird
##verse
bias
brett
lopsided
cha
travail
loaf
hominid
##ould
infest
burst
apparent
##quer
vitale
benzo##
##v
rosa
petal
testicular
abd
grade
ac
eternal
un
citizen
shel
tia
behavior
scuba
yes
espionage
chickadee
kara
sheridan
tumultuous
cloture
refutation
frenzy
hatchet
salaz
katara
stooge
jefferson
##uce
forma
stella
mun
tiki
entire
superscript
scandalous
legislate
dissent
##rou
ket
draw
consecrate
preclude
chatter
nebula
##ahn
oblation
midi
mis
threat
garnish
ditty
dissemination
##acity
ideologue
protozoan
avialan
##fy
freak
anatole
constrain
vimana
mantua
##ieve
ted
diet
estob
dereliction
acade
rubbish
slough
teresa
hacienda
qibla
niran
sling
milord
dress
calcine
cholecysto##
spink
ang
rayon
rehabilitate
scab
rosado
scen
vexillum
importune
##head
hike
extraction
spontaneity
estrange
brine
rakshasa
anthozoa
tactile
kendrils
beagle
inno
milburn
rip
mediocrity
cardio##
pail
energetics
pereon
nuclear
leofric
saffron
aptitude
samm
neglect
baluba
taxi
collection
nexus
zepar
cochineal
japonica
jilt
flory
heaven
sculpin
##kins
##ior
valver
##avn
phreatic
paddle
miami
!
exhilaration
contrive
conga
boodle
roulibard
boil
ronggeng
taff
##xt
thief
juliet
paisley
bakula
icosa##
addle
lysis
##enas
chump
sorry
bismarck
dissolve
exa##
baguette
separable
##ro
8
spitz
aram
relative
bunco
me
##asy
mullein
febrile
mosquito
bulla
tabloid
chimp
haunches
emil
##ahan
korean
samba
chester
botrytis
chant
familys
diplo##
succession
lanceolate
became
anaheim
##leton
##chief
locular
devour
acene
extensor
theatrical
across
pie
satrap
gan
shoal
antecedent
capt
spook
gradient
abode
prog
oper
ine
fuchs
spread
politburo
otto
motif
honor
tabby
stalag
engender
mezzanine
sarod
speer
##oles
anastomose
redeem
yakuza
##stan
enceinte
suppose
homicide
alderman
##ats
##ulent
##old
camphor
banality
inaugural
zap
thanato##
scintillate
jennet
switch
dee
disloyal
systematics
cleanse
terrestrial
aspire
##ject
esmond
invulnerable
mechanistic
haveli
oblong
apogee
grunt
cornel
##entle
charisma
fitted
devious
maharaja
gram
vibe
##philous
cereal
##ked
aver
raymee
mp
cupro##
anonym
cutesy
epi
sidney
aroma
greece
scion
55
turbul
gospel
ray
fixate
n
noose
##que
prophet
sense
voussoir
metrology
assiduous
sudamericid
metro##
vala
high
copepod
stith
seventeen
drake
cate
edition
zelinite
ambiance
mutton
curable
kaolin
repetition
##uliar
guan
nar
##ud
13
revise
chasuble
lateral
affable
eb
topo##
osmo##
formyl
elena
sebast
lyon
flatboat
expository
australis
parterre
outrigger
##ipher
sacrificial
planchet
dino
camellia
##imony
rupert
resonant
headman
olewan
spectacle
paradigm
swat
prawn
variate
balaclava
accede
pyro##
##phagia
succulent
windlass
owe
horde
extraneous
jill
bandage
tower
variance
sumner
kudu
propaganda
reflex
starch
##stem
zirconia
peaked
promethium
filippi
cher
anglo
trend
inclusive
thematise
prolapse
mercurial
allene
viol
incense
custody
reminisce
subterfuge
inalienable
concessionaire
ax
adolescence
thus
ocarina
conventicle
vaqu
jelly
velocipede
awe
surveillance
oldham
funiculus
rebate
abitur
kial
decadence
koine
nawab
nemesis
aphorism
cryonic
wager
##dad
apocalypse
##issance
merengue
divisible
auspice
my##
metastasis
##itate
hearth
shew
promulgation
ryder
indiscipline
glorification
armillaria
glans
cree
kana
ben
##oda
verbose
temperament
stipulation
dadaist
depend
peal
subduct
regal
arab
incorporation
olefin
kadamba
maximize
##ribute
sombre
cayuse
aqu
wing
habit
##ency
##anese
qing
##lict
sordid
rhododendron
atrium
superficial
lapis
liturgical
immemorial
repression
claver
dromaeosaurid
sane
palisade
item
##ea
rad
laird
kor
prot##
abeyance
trident
rhythm
francesca
calypso
crank
neut
enticement
loc
imprudent
fuss
dandi
need
quarrington
tether
foramen
skelter
communist
skill
trestle
##iac
made
country
intellig
maslin
supernatural
maestro
kam
devoid
meech
prominent
scrap
tuft
rotogravure
collate
primeval
##ab
reliable
##iency
mesentery
##ect
recessive
economize
aversion
chivalrous
##iser
grammatical
liberation
bluster
demersal
espy
stricture
chute
narwhal
descendant
volante
rear
mino
##thin
notorious
moolah
vulcan
idea
dangle
divergent
start
interjection
rarebit
spat
pretzel
cichlid
raglan
abrupt
toil
manaea
cheeseburger
reprieve
january
##ay
mujade
trigger
tarot
kayl
rigid
credulous
ocean
develop
candie
cly
curious
bought
##jamas
ion
melancholic
valer
kiss
uber##
gymnastics
##namon
ply
bloke
kline
eloquent
lout
gibbs
chiro##
message
vesper
burgle
##lalia
mulligan
therefore
y##
perpetuation
crou
renegade
misericord
bankrupt
arena
resilient
lush
sangha
pou
bled
kluge
phoebe
carburetor
etern
graduation
mensa
pronouncement
texas
##phagy
collegiate
sabo
lungi
conn
ilmenite
illusion
esophago##
syndical
taw
thermo##
cube
##ual
turn
lewis
collapse
delphic
chyle
contrary
inconven
check
concave
hope
manse
##resent
fetish
compleat
rosette
##isk
spatial
orgy
huge
dermal
nicotinamide
denounce
greenlight
nuckelavee
gentile
integer
reach
##speak
emblem
poof
##ror
mythology
ed
straggle
oak
brunch
circulate
adept
piastre
club
say
##3
stain
ombudsman
squint
blather
salami
olla
catacomb
hour
niacin
muscovite
kyiv
bowel
bride
vernacular
paragraph
mountie
exci##
dystonia
##ither
enjoin
tammy
r
##avier
specter
agitate
swire
spoke
palazzo
hippo
ledge
torpedo
stoke
appanage
disgrace
feed
escapade
commodious
##quet
moiety
ambiguous
incriminate
stool
signatory
chagrin
tube
life
tambora
diuretic
muslin
##fle
dear
cyanin
congruent
ruffian
drastic
synapto##
vomer
mem
puff
porter
borgo
desst
salicyl
albumen
##aron
piebald
chanterelle
crucible
falter
sanctimony
schooner
yokozuna
infinitesimal
prophylactic
motu
meekas
##wave
scoliosis
beacon
panther
falsetto
adjudge
millennium
##ura
beg
flush
currier
##aul
restrain
##rrhagia
buddy
lyndon
borscht
bed
crate
##nda
lacerate
microrna
cayo
baso##
emphatic
concent
rachis
raster
metricus
interse
##erent
blakey
fate
coot
substituent
conj
arg
hawthorne
rifle
combinatorics
reme
##down
vedette
ensifer
truant
ren
dismay
titan
##uan
hallow
stanley
munia
absolute
confound
endocrine
chorio##
hospodar
wimp
tong
##uj
##lder
ragam
jolley
krantz
attila
camarasaurus
ketchup
last
ele
cliff
##vert
devote
differential
##ibe
halftrack
oleo##
##eria
mac
complaint
ox
corgi
villainy
whether
hardboil
anvil
shamble
few
jubilant
kitch
##og
primer
spang
public
cray
mercury
mither
rampage
kirt
ellsworth
jewish
servile
apoptosis
sadist
cacique
##long
labium
elogium
palatial
pau
dressage
antagonist
diarrhea
roof
admire
alb
##ylon
maths
reversible
barbarism
excite
holdover
interval
vanessa
bizar
snag
septo##
acerbic
chopin
shrive
##ano
tori
ireland
topsy
declare
spoil
joh
##acco
um##
unite
##kinesis
eta
americas
pneumatic
gnomon
psychedelic
ceph
trama
polyptych
##mo
month
##quis
100
hq
isinglass
seigneur
harmonic
##kee
despicable
##icult
frontier
shaheed
20
##aze
rival
decorum
lambast
##free
piety
permit
feder
mannitol
dum
foul
casanova
ern
timbre
##ippi
dalliance
incidence
balm
heritability
farrier
hierarch
papillo##
surround
alexa
sur##
g
patagium
kerb
breeze
rapid
hines
##los
folly
halva
geld
cruft
aura
pestle
stingy
traitorous
fervor
jacobs
germinate
locomotor
##ead
telepath
lignum
mohr
crim
superfluous
nefarious
tyr
admiration
monk
vestal
recru
nazir
pileus
doom
mutilation
postal
farina
fluid
boron
adhesion
supernature
voxel
copa
rhubarb
naruto
char
charismatic
cession
lauan
entourage
royster
gaud
comprom
entoproct
love
gratuitous
latrobe
apprise
sellar
reactant
abnegation
vital
##arn
aloof
rust
talk
##mec
nsa
cytosine
agglutination
ellipse
knew
##ge
disp
masque
eucalyptus
still
meant
legacy
##igg
rebar
apology
parsimony
redemption
latrine
circular
vein
nub
creamery
peritoneal
busby
##valent
tectonic
disple
hanker
hurst
where
theodos
indecision
extrapolate
electronics
tax
mastoid
sauerkraut
##eres
hurricane
pausa
incoming
rectification
sphenoid
coelom
divination
martial
alchemy
lead
crusade
deject
##ila
lesade
##ipate
ver
afellay
lean
quatre
lachey
hadrosaurid
quintin
oscilloscope
conference
induna
##utton
moog
ritter
irritant
cler
us
##erie
oblivious
bog
until
clarity
identic
treacle
assemble
jacuzzi
kil
conflation
schizo##
joyous
sad
culvert
glazier
dunder
smyth
sher
indiscretion
raymonde
investigator
reflection
slip
scientist
production
quark
##vish
covent
replenish
culture
ugg
choice
raucous
absolve
extremity
digestible
cicada
asp
aggregate
gild
creator
mark
jung
universal
choy
chich
##on
##uela
##anaka
adrenergic
require
deception
cooperate
crisscross
ventricle
toxi##
groundout
##pan
lenient
tattle
fish
hailey
now
frenchman
virg
pansy
##tome
tryptamine
taka
choroid
##eel
stig
competitor
fermentation
tephrosia
aesthete
viscero##
patten
xander
kip
portugal
shimmy
instigate
##ren
tarzyn
##oh
lyn
urate
abstention
breydens
##cyte
toponym
mini##
honk
expel
alexis
indium
okada
noir
##gamy
pluto
party
aquarium
ob
ta
k
sibyl
to
foible
punk
toa
indestructible
ramona
humvee
telethon
large
basilica
katsura
dugout
pilo##
triage
jamie
nak
pundit
tank
inquis
zoo
nite
fortify
wrig
deep
##erve
maratova
##log
applicable
topographical
fungal
reynard
existential
anxiety
thump
justiciar
lycan
limit
homeo##
saltpetre
lagoon
dextro##
mastodon
both
syd
rod
average
fredericks
joseph
qual
##ndred
revue
flirt
cretaceous
##akosh
papadam
cestode
oven
countout
##iph
claymore
decide
tegmen
prof
seltzer
rotund
coe
bere
composite
clunk
chaos
mahal
chromatin
yawn
concerto
catarrhine
captor
##ate
pen
six
rashi
bathe
intim
hypotenuse
##esday
meter
feces
##uction
##polis
crap
clastic
romanise
surrender
despair
scute
courtier
##yal
conscionable
emulator
leigh
sextant
grit
brutal
burial
anthracite
sonnet
len
riot
incarceration
preposition
catalysis
assessor
##mor
con##
hunchback
##inion
mackintosh
mistress
gord
nuance
asperger
sustenance
we
canola
parody
spine
pyran
agglomerate
bandy
waratah
sleek
tuple
dene
avocado
hiccup
trauma
acuity
lectotype
perihelion
mastication
dignify
palm
rake
##f
ruse
debtor
steiner
woof
sle
furion
myri
lexel
gulp
caron
insurgency
innocent
##aken
extern
rebel
progenitor
recursion
form
trainor
##mancy
exped
silesia
squirt
laryngitis
gentle
novice
rpm
uterus
boscage
shuji
##ucture
reclamation
psy
simulcast
found
waldo
chow
caponier
rostro##
shojo
squamosal
slogan
ba
bor
sapient
sibilant
bootcamp
jeopardy
nasa
impregnable
jennings
repetitive
willet
lys
##ville
ryu
ingratiate
shorn
eco##
vivify
avi##
##ie
palace
maharishi
cuticular
pyrrhic
inertia
##eech
hurdle
fay
cuss
cranberry
nik
inception
fah
peroxisome
oatmeal
esthetic
jakes
revenge
liam
##roy
ast
physical
##si
wail
ran
greed
##irrel
vanish
bunning
saddlebred
clandestine
snuff
tarnish
booke
albumin
oblate
frolic
thurrock
optic
alligator
##gue
everglade
crust
luster
easy
mustela
##n
asterisk
seale
brut
##awl
reverence
copulate
suitor
dougie
colloquy
concretion
merc
vroom
chancellery
pedagogy
cramer
squaw
africa
robusta
columbium
oct
bamb
bromine
snack
##nder
bite
virulence
etude
perceptual
hance
communicant
sudbury
accuse
nucleoside
cilium
campana
macaque
meritorious
pangolin
shall
warp
rah
viz
contention
anwar
bacillus
cobbler
lj
placard
sow
plinth
dissonance
hok
beatification
leviathan
woke
conway
agha
ow
lamella
homogenize
them
explos
rho
tunny
stipulate
stoor
toxicological
mele
perseverance
erotica
##an
chirp
promote
inh
banovina
kite
recede
electro##
pirate
abo
generalissimo
cruse
sync
didact
accoutrement
del
refuse
bazaar
asiatic
veggie
babbit
fey
osw
expressive
rever
sept
porthys
##mal
jut
economic
magneto
prosper
dinosaur
inaugurate
drone
##ra
##oosh
epi##
inflammatory
pilgrim
phlogiston
seventeenth
dormition
pavilion
fuze
expedition
caspase
bangle
allegation
frequent
##thal
reflexive
pharaoh
passive
prophetic
polecat
mona
exhaust
dhyana
centro##
valium
##saur
manumit
kiel
accession
rent
biblio##
colbert
chezas
stroke
hylian
dang
swain
scent
cheerlead
simmer
prowess
mormaer
poison
boll
magmatic
actual
joust
diaspora
offence
corse
axon
##red
regatta
tunicate
turks
haletons
##elich
allopatry
boa
rupee
tyrannosauroid
forum
dally
##ago
obligatory
declaration
emmet
agro##
mach
roam
nice
corpus
signify
xiona
aggrieve
##ex
organise
jackpot
complete
##gon
hornbeam
jatropha
claw
zhang
cheviot
cinderella
hostess
templar
hymenoptera
sic
repertory
populace
reticent
northeasterly
diacritic
parent
thing
##avy
craven
livery
furore
pentane
faze
##uk
poindexter
cess
paresis
congression
kh
##ries
hickory
inquisitive
gamba
ups
obstacle
authentic
hythe
enorm
purification
rollercoaster
partook
cathartic
interrogate
seniority
agro
allowable
##aus
sniff
quinone
anthem
boulevard
shower
escort
madden
pass
khalifa
ostracise
proportional
##acent
rebuilt
garner
cipher
geography
fantastic
relieve
fax
fisk
vacuity
dime
zest
jersey
nodosaurid
snow
strafe
insubordination
oval
eminence
anthra##
`
pessimism
##atter
datum
vesp
sadhu
deceleration
die
festival
squabble
stymie
ka##
##ceed
anubis
populism
mobilize
commandant
dabble
malt
transcend
aid
celeste
piano
##logical
rumor
tranquilize
anole
##sphere
scaup
rudd
concurrency
chili
kiang
pony
remove
minish
reliquary
##bi
yah
sheen
infraction
cairngorm
chlamydia
tweak
##mpl
harve
stint
##pping
cornu
superposition
rotor
pallet
bios
teleology
happenstance
ukulele
journal
swede
line
proph
curry
disclosure
smut
ayre
##wise
scold
predecessor
original
pascal
feet
##ves
mordant
cruciate
crest
tofu
chastity
delicatessen
chair
##een
negotiable
senator
##key
directorate
destination
platform
xing
lute
lampoon
mon
martel
kade
colugo
estab
pustule
christians
epistle
yort
##agan
weather
commodity
mirabilis
wipe
##x
discord
bug
co
cohere
transmutation
extirpate
theta
insipid
idiocy
moto
regard
horticulture
aerobics
qasr
taylor
mayor
zheng
tendinitis
abrahamster
##alie
##ify
##lav
convergent
steed
##ason
toxification
efficiency
tell
desiccate
googol
##aly
monophysite
winged
athena
mush
arnold
aurelia
ail
bovine
unilateral
determinism
shouldnt
syphon
cartilaginous
godard
whole
sovereignty
laager
garb
chroma
##yo
catch
necrotic
valence
complicit
##ises
bert
mafia
pubis
sulk
profane
bly
aphelion
##eed
clau
battle
##ood
areola
sutler
caudillo
italy
candidate
exhortation
booth
churl
carbide
##row
rare
catalyze
embarcadero
bec
colonization
armstrong
diverge
skate
sananda
##tard
clancy
grizzle
##iture
zucchini
holler
johnson
kennedy
ultra##
senna
num
instill
dispensary
quinine
exerc
mathematical
retardant
hull
plani##
prod
twist
august
##wad
appet
stapes
lepidoptera
expans
ischemic
seismo##
##mission
ingestion
toleration
ana##
maverick
fluorite
pictorial
fibro##
haye
porosity
spokeswoman
dynamite
judge
whet
solitaire
##nes
orbit
brochure
ceo
noyer
larissa
hernia
impact
##sl
intrinsic
synchro##
commentary
mercenary
glib
manuel
impressionist
sib
jade
facade
##bodys
deviate
hepatitis
ruckus
##roix
mamilla
lai
without
vibrato
proto##
rea
obliterate
smirk
eighth
pence
chough
hetarth
shampoo
camb
email
hade
##ounter
incon
like
##ies
##ney
ipad
sherry
though
netizen
sr
##right
audacious
crepe
##ard
circadian
jaquan
##ahtel
esc
tournament
exorcise
medusa
gynaeco##
allude
terri
talon
guernsey
obiter
##cent
bas
washout
amenity
##lanc
brick
chuck
lak
##is
drupe
incapacitation
gh
hug
phillip
loyalty
curl
pleurisy
chrysalis
conker
##istle
##where
abundant
arboretum
cle
##mb
##icial
heald
reichsmark
tallow
smile
lactam
acharya
pancreatic
tutu
grievance
sog
ontogenetic
exterminator
fiasco
yarborough
kata
epoch
duff
wassail
##ria
##iform
weapon
montane
encryption
americans
hook
formulation
wildebeest
insoluble
diagnose
lyme
meek
yap
suave
bully
label
qiaoshan
decrepit
wan
gloat
pocket
evacuation
shoop
grail
philology
effort
sable
trau
antho##
anther
##orable
ingrain
##tropy
sumac
graff
evert
youd
dougla
umber
coulomb
mishmash
bretwalda
braze
rallye
##meal
antisemitism
amy
clod
department
tide
helena
problem
##form
##ux
anesthetize
curs
writ
phosphatidyl
limbic
vibr
ad##
toon
chromatid
sullen
##thern
jumbo
uplifting
anthony
share
window
redress
calig
##itty
amsterdam
lapwing
duat
aya
needs
orth
logia
mesonotum
matinee
bap
satoshi
wendy
giro
valencia
neon
quadrate
opistho##
era
agglutinin
pro##
cirrhosis
jailer
pyretic
##apnel
mania
marrow
hickey
vigor
tactician
ooze
##isman
##mitt
tonsil
synopsis
pandora
tribune
prune
##clast
ruby
fibula
constituent
pack
rupture
stephane
##brew
phish
marvellous
##cation
##ril
marry
conciliation
loss
pharyngeus
synonymy
mental
pist
lichen
##pose
endeavor
##mobile
remain
cubism
sponson
stratigraphy
plough
##oose
echino##
borde
munro
##mas
hummel
copse
##reat
margo
decimation
##drome
wek
bereft
mozambique
rhone
sett
egyptian
##tope
renege
determinant
enemy
lump
sebastien
detach
dormouse
lafayette
wark
fringe
kaddish
atrocity
deforestation
musick
diamond
calvin
chaff
cent
##ogy
laboratory
flannel
dock
mature
med
guilt
hoarding
divan
winch
stupendous
mobile
sarabande
vivisection
cavil
execution
jejuno##
borrow
stammer
infarct
beach
ken
##uten
hesitant
slot
crop
vendor
poet
spasm
quintessence
faeces
officiate
compulsion
rebellion
ceratopsian
saddle
tributary
angelica
prudence
chaur
shura
american
roberto
bouk
musk
palpebra
create
gown
southern
vile
ostracum
pooter
mariachi
semifinalist
racist
kevin
##chua
##ces
madeleine
##iddle
campbell
jimmys
translit
##or
cataclysm
cheerio
##ets
shatter
sharif
orchid
anal
stacy
astragalus
hysteric
rheology
coagulable
decant
alkoxy
vihar
carnage
auton
##tch
gens
bron
gymnastic
graham
ser
gaylord
chamberlin
phosphor
krill
opposition
##wart
nico
burke
adjudicate
currawong
guilder
cabbage
walter
nuisance
contempl
syndrome
billow
cel
crimp
epinephrine
bul
cordillera
cavitary
mon##
ordinance
elegy
precess
##ft
snuck
hiero##
ville
oto##
errand
criteria
absorptive
angle
ke
##omp
##ighth
magnanimous
reason
esteem
virga
nove
bluff
magistrate
fracture
pandit
##igator
jose
feare
olm
sump
anu
flounder
visor
wellington
arr
whip
shoulder
ambassador
sperling
savour
gimmick
cimarron
rin
phallo##
##iforn
hose
routine
felony
text
defe
cyclo##
replicate
oedipal
ex##
cmon
iodine
novum
exclude
fall
##o
stead
reave
masticate
pellicle
pippin
hoodening
naga
seorita
crook
goliath
heave
thursday
scour
##rical
total
petulant
cult
kiev
saga
chalet
talkie
creditor
kremlin
je
christmas
krista
helicop
head
##ider
detect
prester
ytterby
sepal
##azepam
disseminate
guyana
##uton
parry
stang
billet
repute
##otion
paradox
xeno##
disulfide
denticle
toothcomb
syncretic
blackcurrant
sampan
implode
slaughter
silicon
hubble
jon
dumb
complain
##what
relict
sycophant
frizz
inferior
trishula
twit
##haps
mews
coherent
##ulous
##sun
biotech
teach
thallium
distinguish
##rie
talisman
literacy
vignette
kiri
maugre
meningitis
rivet
withe
insomnia
thule
phan
prostitute
##dden
alice
between
lug
lutz
bunn
diligence
##athe
brace
flashforward
plateau
mottle
instant
swastika
pavlova
hoagie
approximate
dread
curmudgeon
julie
chlorophyll
uncle
caprice
scrip
once
fanlight
jimmy
melancholy
mangold
magn
sphingolipid
##yl
##iod
premise
kampung
gaze
squawk
trigonometry
nayaka
wah
##vard
canteen
est
interdiction
appaloosa
innovative
garden
skull
offic
plebeian
glyph
scruple
applic
brindisi
hydrolyze
entero##
ligase
aryballos
hamilton
irritation
polka
intent
carn
nun
hydro##
departmental
dinmont
relaxant
glitter
mountain
aristocratic
elapid
finans
econ
perfection
psionic
obesity
representative
tome
eleanor
mechano##
oo##
an
felton
kern
espin
##er
quechua
dex##
robust
selenic
metallurgy
tubulo##
krypton
dip
andys
uk
extra##
nation
librettist
sepulchre
scamper
crystal
mikhail
blitzkrieg
conformer
comptroller
bur
##rest
liberal
arabesque
personification
##ingh
##iciency
dotty
martin
on
pap
khaki
amino##
file
waltz
velociraptor
derp
laminar
galago
subversion
petty
guidon
rummage
territory
##uria
helm
desist
dre
verdict
municipal
embarkation
##udder
patella
eury##
temnospondyl
hafiz
methodology
emigration
impoverish
##rod
bank
kenneth
patri##
gulf
plumb
swale
##iz
oh
sober
science
crovirs
persuade
acce
mesic
artificial
nobility
pretext
mithridate
##gend
forbidden
quarry
##uh
myelo##
bible
therapist
chard
tutelage
patroon
cholecyst
espouse
serration
havoc
lettuce
const
aghast
apprent
fluoresce
##inal
bepp
exhibit
deal
hooligan
lament
exh
rioja
kathulis
ternary
demo##
schedule
dacoit
enthusiastic
pharmacy
##ract
duke
abund
##tenburg
tarso##
coeliac
##kle
pamela
##yer
flamboyance
veloce
else
notary
##archy
concord
opponent
arrogance
clamor
maidan
declamation
bowdler
taxidermist
##gle
##di
glower
xerox
care
conspiratorial
##nomial
spurt
precipitate
benzoic
chaparral
##vor
seattle
confidential
reverie
acrimony
generation
yew
piedmont
dispersion
lamination
21st
hampshire
##pson
scourge
rede
undertaker
shiv
google
quadrille
glimpse
kov
jameson
ruff
documentary
alarm
scramble
kentucky
armorer
irrefutable
perry
residue
pardon
wear
dome
pue
temporo##
jobe
facio##
donovan
silane
cosplay
sportscaster
swee
boutique
smooch
comfortable
refrain
##sworth
dant
proclamation
dibatag
scant
cisco
uptight
legume
duty
vitrify
justification
##sexual
antiquary
romero
precession
diehard
gallopin
attest
ne
vill
university
lic
exile
skeeter
ritual
horst
haver
memorise
rite
bourne
pontiff
subtract
shikhara
hair
##wh
cheat
mut
martyr
utopia
usurp
teme
thousand
soft
tale
haunt
goblet
##unch
coloration
devolve
curial
ripon
basso
harsh
##ism
##pha
belle
carboxylation
chocolate
chile
lava
eclipse
comune
irritable
dactylo##
pendulous
oliphant
monocyte
decorative
introductory
etho##
##kinen
hes
##am
##inc
prep
##nam
smurf
barotropic
ape
prow
humble
inherit
matthew
joint
louis
nausea
bred
caliber
frog
hematology
boss
##pl
tween
document
fission
lea
assert
bolshevism
rhyllann
thread
profit
order
gree
indirect
aspis
retrograde
demesne
intercede
floral
jayhawk
selective
meck
contrabassoon
##inent
##ooke
embarrass
least
sk
pallidum
desperado
bro
,
invoice
waver
determinative
edith
amur
schmaltz
gauss
emissary
bluebuck
murmur
cantwell
neuter
dri
##band
compre
reprehend
junctus
laban
##urn
dell
avifauna
subsequent
adele
cross##
judicial
cra
sear
island
albe
morale
saccharo##
snub
cryer
ot##
lattice
palyno##
cruel
kept
onsen
mantis
coward
##itable
perceptive
yogi
tirade
impure
dierdre
preceptor
roscoe
coeruleus
dopant
##ing
##esh
ghat
fervent
mirage
sympathise
deluge
proton
stimulate
gender
##ings
oligo
twitch
welt
goblin
synergy
fresh
##rent
estoban
soviet
desiccation
hurrah
prestigious
gri
foley
indigent
knight
15
##blem
##iami
gurney
zo##
odour
quebrada
iambic
##ield
counterfeit
verisimilitude
durst
gander
believe
jargon
##enson
parodic
charley
avert
putsch
mignon
spool
genus
finch
duchess
attenuate
memoir
occiput
overheard
shabbat
rete
save
virginia
beth
ticket
celebration
tuckahoe
viola
##uple
occasion
bene
surmount
clairvoyant
numerable
doctrinaire
slive
samaritan
volva
##ense
sid
vermin
clove
fortis
styrene
denote
shar
##lite
gyro
lathe
repress
trant
autochthon
##igan
nadaswaram
tom
jewelry
manumission
motile
copious
ret
withdraw
reconstructive
mim
##rate
aero##
persuasion
##tern
##itive
tipp
dal
cloak
##use
##et
lap
##nesse
vellacrus
decry
strict
tattersall
ilk
apparatus
kayfabe
intransigent
apsidal
warr
burglar
buck
sah
summation
deni
criminal
tondo
sine
meme
mutan
hereditary
stalin
sodomy
standish
declination
seth
defiance
appropriate
authentication
pauper
##pper
treatise
rem
##perate
sele
##andez
bicameral
bingo
synchronous
miso##
skald
conceptual
redemptive
allocate
cromlech
passacaglia
bourdon
yuan
willful
capable
crevice
fu
seamus
biot
amputee
ur##
siss
stat
sound
gil
zabronski
curtain
register
##olyn
##uctive
zeolite
conglomeration
tropic
anthesis
##orus
fourteen
hur
seminar
porcelain
jeepney
synthase
discreet
histi##
##mons
giant
go
morocco
swart
blubber
interferometric
squander
entreat
anomalous
##oom
aggregation
fink
pendulum
pacify
mission
melodrama
fervour
maraud
reform
patho##
diff
inflammation
symbiote
accolade
tempo
applause
dramatics
wendell
obviate
narrow
difficult
##itar
##ripp
##sell
doin
persist
algerine
kimono
people
mariuss
slender
vega
stellation
etret
audio##
triangular
acker
inauguration
mysticete
combinatorial
intersect
cell
tergite
had
gird
nothin
##venge
mascot
mettle
idolatry
dominant
jharokha
bee
exploit
iconographic
fart
pro
distend
babel
neuron
rif
thebe
##erc
tetanus
grease
sociological
aqua
gliadin
implantation
cactus
rheumatic
fung
tight
church
indigenous
wolf
delight
rakyat
neptunian
taffy
petroleum
palliative
moulder
cliche
baroque
panel
stylet
trophic
funk
morello
alms
apostate
khel
minuet
rik
omit
perhaps
cistern
camera
relay
infuriate
mytho##
decryption
glisten
yellowhammer
predestination
matrika
mimeo
garment
increment
bail
educate
flung
sne
sheikah
##ryk
sarcas
violoncello
aural
squant
41
alluvium
columbite
clinch
anthology
muslim
##modate
retain
innate
taxo##
rely
invective
##ever
bathysphere
buckeye
equatorial
shogun
olympus
##cend
tay
burgage
derogate
loan
vault
intestine
coon
are
holm
tense
glucagon
subtitled
sm
mohammed
ashoka
fictionalise
conch
husk
pere
##opia
eau
autobahn
hyl
pander
ferritin
challenge
brav
lewd
kcal
crew
lav
thon
##arch
pigaf
daves
transl
juane
parity
purvey
surve
retroflex
enjoy
suspend
yogurt
futon
paranoid
various
james
anxious
flour
pop
doctrine
sweep
toreador
yuko
explicit
scotch
per
tv
vocal
signal
snivel
gle
25
magicienne
stanchion
climax
aust
charlie
polyhedron
parachute
odious
de##
ask
mock
dual
inflate
intimate
contamination
galaxy
misogynist
deport
##io
bungle
mariner
plumage
kirsch
bayou
seven
neigh
sixteen
##ni
bolivia
carcass
chauvinism
antarctic
sejmik
chit
[CLS]
baboon
braggart
scoria
scum
##iance
knee
sheaf
caramel
typist
almost
administer
crisis
iridescence
calamitous
cubicle
zouk
civet
deserve
dunam
##bridge
papule
mor
brandywine
subside
sadism
mrna
methylphenidate
maestra
goalie
cumbia
bureau
morpheme
craic
daunt
alkaline
convulsion
raphael
##ensive
inocent
perfusion
stir
sein
administrate
intern
chad
##morphism
lascivious
hepatic
warmblood
##age
laterite
whis
soil
perilous
adhan
nepenthes
fbi
##aire
##ricate
pact
icky
incompetent
benny
traffic
rale
climate
pompous
directive
polychete
episcopal
census
submissive
ham
servitude
credible
linear
colourise
cauterize
##front
shehnai
skillet
pame
##uy
manganate
benef
took
commotion
narrative
paine
approximant
demonic
mcdougal
civilization
philander
hetman
disrobe
##genic
someone
##br
##cys
resonance
silicic
mail
##uggle
wether
sprawl
calvary
aldehyde
##gen
##off
inex
tosh
barricade
team
##ucky
loup
##uji
weh
gluten
argillite
##ith
banditti
discontinuity
sumptuous
periphery
necro
orgasm
stop
rool
}
solubilize
cropper
duodenum
myocardial
reno
mantapa
palpable
retroactive
mero##
transvestite
extravagance
spree
regime
signature
paschal
seton
khedive
celt
leak
pause
carrion
##cel
yok
commonplace
circ
celebrity
edward
smart
mul
gallery
northeastern
laconic
mom
taxi##
aza##
maundy
frivolity
patera
wean
harmonica
tissue
tonight
sate
stanza
lamp
commune
reminiscence
economics
mantra
prestige
lethargy
federate
perovskia
longitude
##wards
oust
jak
##tes
vespertine
home
flotsam
proletarian
herr
aspirant
##agon
respect
drove
##rian
##women
tara
tyger
premonition
prise
carve
eminent
burble
osir
thutmose
hypothesise
script
arse
grandma
myosin
##path
yahoo
cu
wench
craton
hawkins
erythropoietin
acetylene
reggie
charter
fusible
jingle
zing
morena
amputate
trite
blasto##
teeter
drethlords
papa
cycl
qaghan
shin
ranga
concuss
topology
brevity
elution
perceptible
tyrannical
stratify
finite
roth
diphthong
kale
participle
hits
subvert
contradictory
mikan
sexual
nasal
pantaloon
intermittent
depredation
titanosaur
fallopian
ago
theorize
##gain
migrate
commence
mara
germanium
conciliatory
madrasah
orator
finan
garbage
paternal
pommel
tibia
invoke
##astly
dermato##
pron
articulation
obnoxious
bre
##ign
askari
escarpment
salle
genuine
varvara
52
market
uracil
veld
pixel
ninjutsu
terminate
teleo##
zale
celebr
vaccination
##was
baronet
addend
sock
hypophysis
acculturate
contract
fer
jacques
roker
synchronicity
selenite
##seus
nitrite
##istration
bleed
excitatory
laryngeus
correction
commissure
masto##
percolate
##ns
lysin
##ilion
quench
facility
iraq
animatronic
polyp
padlock
##foot
gee
venture
mechanic
wisteria
sophomore
oxide
##mer
terrain
pud
crenel
fool
anth
salutation
reb
congregant
##pp
moses
ru
compress
wont
americ
pentathlon
debark
nancy
##aa
stover
doctoral
pegylate
appellant
##ho
4
cinquefoil
jizya
griffin
penguin
pep
collie
flex
speight
ulema
commandment
portent
module
phoen
wove
habeas
cope
lexico##
nor
bleep
severance
beet
signification
condole
tsarina
##ove
ablution
troglodyte
oboe
governess
grist
rav
exemption
melisma
dentin
fierce
sequin
chloro
scrofula
pooh
consternation
look
clad
cuneate
lumpkin
et
gerry
gauze
de
descri
##ault
architect
epidemia
klan
geyser
absor
atkinson
analogue
puer
corroborate
##gh
wass
ohm
nematode
rector
brainiac
immolation
mop
perma##
##ating
coq
diplom
isis
tew
zok
hollaback
bao
tentacle
stasis
quine
auguste
conceal
asph
fraternal
##crat
stra
mary
##mm
##chant
##othy
squire
allege
proto
haleton
ulcerate
dern
cockade
berserk
zamindar
grundy
embryon
##outh
surre
www
##ted
##rav
hoo
fortuitous
forestry
definite
##ape
kn
peritonitis
reveal
##logy
receptive
agar
hippopotamus
bure
cursive
flexid
huntingtin
citation
quincunx
annul
galactose
forceps
maternity
##iley
stro
admiral
mousquetonne
loath
scimitar
cadenza
emetic
egotism
bacilli
foreclosure
iggy
brigand
ritz
alien
effective
strate
bou
comm
spiff
cecil
lara
denature
fanny
orchestre
woman
description
angeles
chronic
vestibule
musique
pioneer
thirty
hypnotise
ib
limbo
rhombic
detain
oce
dejection
elude
tremella
magnum
lunette
castrate
oblast
flu
chronicon
collect
frenemy
bancroft
##ass
larder
centenary
terpene
0
bilbo
visual
armada
context
pump
phant
synagogue
##ons
brit
notarize
##arm
reconnoiter
parabolic
rhyllanns
grace
legitimacy
circus
voracious
bounty
##aker
tangible
mudra
##phobe
antral
##ament
act
##bil
crump
decuma
fic
probability
choke
interlude
##ung
##parate
ressna
amalgam
number
panegyric
kilim
trounce
trampoline
##ced
rect
amputation
wolverine
gaskin
previous
matanza
grout
break
axillary
rest
stance
potentate
thrombotic
toki
impermeable
necess
degrade
banish
sodden
##idate
mortician
notch
shama
##inary
badge
reconnaissance
batch
rivulet
slur
chess
vend
twee
incredulity
queen
tent
bakhsh
agonist
ashame
elocution
youve
catalina
duck
silver
vista
gwaum
concubine
goa
ante##
alga
kims
triumph
##ers
kell
pragmatist
dandelion
;
abyss
##ague
fedex
passant
bronze
gaby
tenement
girl
oviparous
wythe
mayoralty
kyu
relate
serena
chorus
copula
steak
mantel
molt
stud
utah
inswinger
infernal
rata
fixture
alcazar
lawson
armature
hajj
haka
feu
proteomic
aryl
blesonus
ecology
skink
ost
uncivilized
inhabit
bizarre
barbie
kelp
menage
streptococcal
juvenal
taxonomist
venerate
asana
kalpa
iodide
##ald
steph
caecilian
intuitive
expl
maria
shutter
mess
neutral
desertion
eyrie
gadolinium
hong
considerate
carvalho
badminton
paean
elo
schole
glabrous
amoret
cyborg
galacto##
clerestory
belly
domain
thrill
salacious
collude
whop
aria
bureaucrat
delicate
prong
kebab
tromp
impresario
include
##rd
plicate
ostrich
gonzo
moneron
smither
periodontal
pectoral
pituitary
ethereal
victory
lupus
teeth
ewe
hant
demographics
septate
ferric
ebony
supposition
adhesive
barony
bonham
fecund
montrose
veneration
modicum
continuity
shtick
neighbour
convene
semi
porphyrin
m
relevance
example
jiff
cuesta
##anse
canler
##sicle
stump
maam
auf
pallium
oryx
divisive
agglutinate
crypt
aqua##
fragrant
theistic
ist
pent##
call
anna
momentum
##bit
colley
terrazzo
germ
soar
##tic
stratigraphic
dud
rap
cann
bridewell
taco
##onium
fudge
mesoloph
handicraft
tellurium
bogdon
shrimp
devout
biz
estrous
wapato
maul
shippen
slosh
savoury
embassy
chain
##gn
syntax
anglophile
lark
angiosperm
rubin
bonobo
affirmative
modulus
desi
digby
systematise
pimlico
cashmere
howd
hex##
portmanteau
lex
repair
indiana
mutt
clinton
graduate
naturalization
harmonious
cayenne
##iage
talion
lania
father
callahan
thorne
darins
manometer
jan
vagino##
hock
robert
rhino
wal
channel
dove
miss
pint
eligibility
revoke
canarium
velo##
clamp
trombone
necrosis
click
miscellany
195
trivia
robo##
miracle
uni##
intense
fuji
shoplift
deride
liven
yamir
myriad
bland
map
tauto
sceptical
rach
##orse
not
tanemura
##jection
impersonation
flower
effector
##getic
denude
severe
abba
alabaster
couth
##one
china
lieutenant
dixie
##re
breakdown
negotiator
rubric
bovid
strepto##
glock
inhab
femin
font
burton
##etics
inviolable
promisor
prissi
kvitel
reinette
barge
hodgepodge
filigree
bibliography
hypsilophodont
fixation
supply
weve
apc
##walker
vit
angel
##tr
knoll
resumption
paladin
torrent
laureen
trespass
verde
hue
smooth
debus
brandice
wainscot
mani
epic
puli
excoriate
lithography
##aur
##unt
refound
ais
straddle
flambeau
casbah
islamic
riviera
geor
incantation
metro
figurative
niger
dearborn
lich
auxiliary
plenary
##antic
serjeant
th
kyule
gabr
##esis
whom
interlace
egalitarian
nagara
cindy
retort
bogey
negligible
sabot
saccule
##ability
glad
renovation
rada
radon
lift
rescue
##ynth
lick
contraceptive
amble
contractile
bulk
ribose
eucalypt
syndicalism
reactionary
serve
salv
relic
boreas
crabtree
mutation
owen
fon
proxim
a##
these
anyones
invocation
##plast
wipeout
##phone
regiment
despot
bodkin
wat
holden
##ison
confe
stamen
ave
lapidary
enantio##
butler
nitric
blanket
arose
suzi
apostolic
cassia
curtsey
spleno##
bloat
carucate
culm
try
quote
bafta
castigate
##lir
glean
platter
walkabout
petro##
cybil
amara
tob
smite
forfeiture
harpsichord
ceratopsid
quisle
butyl
necro##
purpose
tamika
strobe
progress
do
gravity
shot
##aha
general
##bye
scan
moan
rubble
equinox
withstood
thaw
field
excru
macrolide
maleficent
bale
aphrodite
dark
stencil
giraffe
charlotte
commander
lord
##let
profound
sheath
clan
russia
mou
psalm
sperm
lira
miscreant
bowsprit
zygote
scepter
rhea
patriotic
aesthetic
clown
gringo
latimer
sombrero
brew
chariot
##int
droll
sidle
intimidation
ill
lido
eidolon
boast
##ially
foliot
##aude
brun
fusion
yonker
##gage
substrate
remit
celluloid
syphilis
##inn
culverin
bers
poultry
muff
kan
of
lank
taluka
fortress##
glycerol
anesthesiologist
endure
spoon
bradley
inspector
retrieve
fence
madam
nocturne
shave
amorphous
smilodon
algae
gloss
##quine
rant
exclaim
ghibli
larry
##agger
toad
loch
skulk
consolidate
oregon
##genesis
boost
zebu
hurric
3s
certificate
##tropic
agenda
lenticular
skitter
incite
bolt
mythos
collegial
##you
##ance
area
kapellmeister
extrav
limousin
enrol
burge
##ture
melissa
##ba
mysterious
balthusa
infant
ecst
dispatch
express
loong
entirety
closeup
bellum
lacto##
portobello
proctor
po
occas
adou
takeo
monte
uro##
smirch
sanitarium
dinner
manganese
formal
controvert
statistician
brink
metazoa
strident
mangle
deity
cirile
clause
##ager
exterminate
gorse
rena
herm
cul
scully
deuteron
park
##gic
avant
browse
secretory
(
##rano
martindale
alan
excretion
linguine
cary
photographic
falafel
jnana
stato##
##ark
##ann
##thy
##philiac
mons
boudoir
peziza
syr
pon
prick
antar
tarrens
ergo##
##its
extractor
symbiotic
nazi
quadrangular
catechumen
ready
crypto##
##ff
##rack
plumbing
roma
artery
linchpin
dictate
vex
disturb
arms
##got
crucial
organize
##ui
farthest
agonize
disfavour
igloo
almanac
furbish
ariel
simultaneous
docu
destitution
dispel
##arine
grocery
stiver
glycose
suffrage
analogy
sedentary
cl
cortina
##lina
incubation
zelda
felid
tomentose
rebecca
survey
##led
phantasia
metacarpal
fae
fumigate
evidentiary
myoglobin
coefficient
sacro##
contradiction
fare
tiss
stability
linseed
balboa
paraphrase
obsolete
most
daft
sharpentier
sue
liege
iridium
magick
oriel
cloche
flagrant
##gyny
leptospermum
duress
##idst
ketzk
werew
manufacture
intimidate
##imb
british
arthas
gyrus
denomination
knut
muppet
##do
dod
expound
lurk
pinot
insert
tragedian
pre##
anub
tel
equestrian
mechan
anglophone
basehead
subah
gossamer
sacristy
phone
mo
purchase
allure
yagna
##som
mellow
subsidise
lunch
##uition
ramen
maneuver
burrito
yad
exult
pelham
abbey
come
flask
buff
andre
guarantee
antiquate
gameto##
sylvan
bagh
gear
bye
toady
deuterostome
sabbatical
ratify
probation
plenty
bigg
##oid
rotisserie
cap
incentive
nott
techno##
capulet
talud
prey
lilly
clover
whale
eld
yne
morin
paunch
##thus
attain
demonstrate
metropolis
road
brawn
cnidarian
vocalisation
satyr
paw
laundry
superlative
peach
dote
cloud
jeffrey
hippocampus
energy
fac
cobalt
destine
version
distract
stom
asher
demise
rejoice
gargoyle
fulham
boardman
overtaken
voy
##mod
battal
ganna
##ito
##itzer
serine
satanism
bould
austere
forgot
medal
techn
machinery
descript
disarm
monied
analytics
soak
locative
bae
##mania
leah
##arian
compose
canada
cerebellum
backgammon
cwm
pejorative
##hur
consort
tis
clank
tor
http
descend
##est
groan
ocelotl
ernie
bolo##
moisture
haline
foal
##robe
kepi
heil
conservatism
blackout
trifle
ducat
scribe
carry
gratify
prostate
butcher
dogmatic
prerogative
throne
locate
cheek
provincial
intron
per##
halyard
observant
enhance
ingenuity
loo
carat
corporation
anxio##
within
temperature
discom
gobi
pinchbeck
asphyxiation
##uity
comprise
walrus
margate
butch
##hard
integ
reznak
familial
induce
acton
bowle
strewn
paper
reve
facial
alyrin
parasaurolophus
wai
america
catheter
percussion
plantation
friary
cavalcade
demi##
poule
mavis
buhl
saltillo
memento
piston
##ome
senile
mansion
saucer
pus
grunge
arbor
cour
sterol
vihara
yank
yagi
gripe
harem
swami
##ll
hitler
optimum
circumstance
cis
metrial
conduce
cardinal
intro
magnification
bufo
dalton
underst
hardy
famine
interstitium
sagacity
twin
summons
luminous
surf
interrupt
aromatize
'
sharpshooter
fling
makeup
duel
responsible
ger
heavy
bhai
efficacious
ephemeral
##isen
adze
masturbation
##acieux
tomaz
veter
tape
endothermic
moratorium
tumor
tut
wi
domesday
mouth
clar
savage
icon
benevolence
end
sess
louise
chacma
meare
elapse
disco
momma
azimuth
trance
melo##
##vo
smectic
plosive
granma
##ond
discordant
dink
enema
beh
coelurosaur
ronika
spandrel
obri
minimise
guild
excruciating
gargantuan
sanatorium
feasible
tremolo
urgent
labile
conflate
hospital
wig
splut
sucre
jezebel
##iator
guide
metronome
doh
halfwit
##ash
nomad
critic
slug
partner
h
joe
ealdorman
away
##phasia
alumino##
tinge
fisher
repton
broodmare
pom
transfect
bona
italian
##ilian
realm
gesture
misericordia
zoo##
poetical
diddy
skit
envy
azepine
hurry
hydroxy
26
##ater
##laim
structure
geriatric
##pty
chorea
music
##esque
epithet
flagellate
marl
volume
ensure
##ally
shaman
##osis
awoke
infantile
##hail
python
##donald
molecule
smudge
feldspar
skite
nina
gallic
pebble
baal
ultimate
bonne
vote
since
interpretive
certain
flick
rape
grudge
chiffon
solander
asphyxiate
varroa
manatee
cob
letorque
casemate
masjid
eli
rye
coupon
fracas
clepsydra
twig
lapse
##ortex
##xus
epistemic
boride
##lare
##ouse
##olov
corrupt
chiffchaff
ecumene
basilar
massif
##pt
buy
##ook
transience
gigolo
quinque##
tarz
evidence
richmond
repo
massa
jury
lief
frequency
steam
tornado
induct
admonish
rang
tecto##
incognito
julia
labourer
bonnie
bowe
maat
distill
crude
ministerium
enid
affricate
karyon
##esse
universe
infern
shallow
##sson
22
mos
blend
melan
punctuate
cockatiel
stay
##icken
hoodlum
##iling
audible
either
dilatory
##gene
slam
tannin
gist
essex
puncture
thrice
##ta
alex
tryst
interp
crotch
oar
sham
truncate
biff
chauffeur
##rific
radiological
southeasterly
disparagement
##idge
nimbus
clerical
promontory
##hedron
bag
corfe
cholangio##
berserker
nemato##
porcini
humongous
monazite
dido
temper
prurient
##nament
lobo
sauvignon
oro
jonesy
##ruct
blimp
capstan
propulsive
paradise
mcd
manage
pakistan
##vene
adnate
vaunt
underneath
subt
snell
typ
##order
tennesse
interactivity
literal
demine
maybe
sonata
sinew
hadley
polite
beneficiary
morbidity
demoralize
occlusion
adjunct
augur
preventative
thespian
tempera
dermo##
furrow
amphibious
surveill
coarse
millie
alliteration
urchin
paroxysm
nematic
fermi
deva
stele
intubation
chirr
libr
pang
trawl
program
##avan
deviant
corset
finesse
kennel
secrecy
accipiter
genital
sob
morphosis
chemist
sherd
##ley
symbolize
viscid
energize
gnatho##
thrush
sarn
polythene
soma
cladistic
cleve
flatulence
morgue
maxi
exclusive
drub
testimony
potlatch
bosque
rove
##id
authorise
jeanette
zion
engagement
mendoza
bin
francois
gephart
abbreviate
palmate
frisk
rendition
tyne
amb
sediment
door
provost
etiquette
caesium
umbilical
clipper
langer
oasis
lagging
katal
tooth
fear
humeral
exocrine
archi##
jenn
conceit
enact
muck
spain
##ument
##rington
attire
pul
understood
trench
electric
monarch
collimate
aardvark
astound
show
maser
humus
causative
mahant
satchel
dork
disobey
ponderous
##thl
gnarl
thesaurus
but
aggravate
poiesis
carlin
angiotensin
rail
indignant
prion
charade
armageddon
farthing
coroner
##sons
old
matrix
##gypt
incessant
concierge
parturition
hem
decimate
right
syllogism
hernandez
monseigneur
model
somato##
drank
sled
jasmonic
gallows
conduct
therapeutical
laity
ziggurat
graphic
revisit
mitotic
maelstrom
apostle
thioredoxin
kinda
haggis
sacristan
spoilt
arii
chryso##
leo
dig
mulhearn
coyote
tip
holster
bulb
##ceptible
apostasy
bezel
006
borough
hole
donation
biota
defeat
cadel
carton
encounter
stimulus
plumber
stalactite
hubris
permissive
militia
quotient
mise
acetate
zit
dace
socio##
ho
ambush
##elle
sentiment
incur
##icate
holo##
sans
hemi##
bork
zinfandel
croquet
hoy
reciprocity
##rens
lumber
regnal
restitution
##unk
story
filial
##lysis
embroil
paprika
thistle
taki
maniraptoran
synthetase
plaque
syn##
phoretic
stratiform
bellerophon
##very
##cle
urban
##asia
howe
disparage
oratorio
mackinaw
bm
audi
##ult
daphne
earn
dragon
rub
brill
crystallise
adsorb
innovate
##sw
memo
desmond
competency
chord
roosevelt
boric
duo
dane
shoji
extirpation
attach
wondrous
nita
desk
kangee
desecration
moyle
ontology
constant
canvass
asenya
rhyolite
indign
tuberculosis
cavy
stour
bionic
lobby
genitive
macabre
deinonychus
masala
diwan
tui
rankle
superstitious
litany
chowder
due
endocytosis
closure
lydia
maypole
##da
contraception
appendices
quack
vilayet
fecal
dilettante
##phin
chinchilla
barbican
stink
cardamom
##nic
cornet
10
grey
virtuoso
abra
ogive
travertine
##hou
bacov
hallucinate
mechanize
chlorine
passover
astronomical
jabberwocky
rhodium
t
column
tidbit
hin
##itage
##ob
donate
attribute
lotus
moroccan
serenade
codeine
contemplate
spank
pare
apprehend
mono##
feat
masseter
##lix
travis
prefect
apoptotic
plaudit
ir##
mow
elven
depict
axis
ether
frost
grevillea
incendiary
##itation
framerate
beech
ajaw
treasurer
com
plant
##ter
mexic
winnow
isle
cede
japanese
mag
lot
trav
47
whod
whine
mean
##zen
parch
janitor
hed
rapport
truck
##gy
today
indefatigable
desirous
effectual
inga
utay
sanjeev
risque
fatbeard
hematite
regale
decadent
hamza
##cc
cheque
vampire
reminiscent
bayt
skipper
aviator
ditzy
venncastle
against
ou
its
supermodel
klang
lens
puncheon
cassava
##ery
reticulated
trapp
dorso##
deify
capoeira
orphant
raise
hibernation
octopus
putty
prodigious
pox
xian
nullity
gorn
garble
gurgle
inveterate
ligand
exam
rehabilitation
dep
deputation
holl
paddy
##iar
melina
##orney
cite
tone
ab
ca
soul
obscure
anker
calcify
close
eke
token
bunk
##lass
hallux
zin
diagnosis
prohibit
confederation
sympathize
navigable
empathy
kong
vandal
calumet
procto##
endometrium
renaissance
cre
##inguish
hit
berlin
max
physic
cog
raspberry
unt
qu
jol
caddy
##rad
mycelium
im
dais
pegas
demonstrative
nemat##
paraphyletic
##uv
yorkshire
petrol
freckle
sickle
30
allyl
lotto
vic
often
saurischia
shawl
gynecologist
alkyl
brogue
pedicel
argyle
qin
noy
primate
precocious
group
damian
##gan
veronica
molybdenum
rib
govt
harmonium
carillon
aphrodisiac
##andal
cool
foundry
obsolescence
visage
em
taro
specificity
cock
imide
admirable
emanation
##stern
spark
pine
canon
early
vial
cookiecutter
gulch
nepotism
##orth
daegmund
##ourse
stroll
ascendant
deshmukh
compensatory
rickey
pumpkin
inflect
salutary
another
fortress
scarce
##tt
soccer
fanclub
aggressor
mysid
amino
kidderminster
stone
zev
enchiridion
episcopalian
##sc
perforate
chinese
suicide
put
##dgew
heterogeneity
germinal
deaf
decouple
gramercy
al
henriqu
continuum
##more
201
polk
taught
litigant
engorge
sedge
topiary
lithotripsy
principal
hop
stanhope
rumination
paracetamol
recurvature
envel
return
#
panty
poultice
breese
luminal
gut
beckon
##ndry
pey
benjam
flurry
surg
guillemot
phocid
impostor
chang
grizz
decamp
buyout
pseudomonas
womb
picaresque
w
sewer
malay
twain
sector
union
cloy
shero
occlude
##andra
steve
stout
sus
grama
mollify
chamois
lang
gogg
clang
musician
behemoth
ocular
dino##
probe
picture
burka
advance
tiff
sharecropper
googly
demonize
jacob
goli
##ulsive
##zzle
nora
normo##
palladium
keen
horizon
ooh
borane
wol
tommy
rh
color
frail
penny
fur
spiral
modello
veterinary
acumen
lento
snail
lope
adventure
somethin
pal
rheumatoid
clavicle
reverb
##borough
roan
origin
anat
aide
mumble
anadromous
fissure
metra
thoracic
keck
salaam
6
data
dominion
ginkgo
frown
lamb
nose
gem
ok
sokolov
licence
mycoplasma
coli
retrace
shock
fervid
informatics
petit
tuff
olivia
delft
##icuous
karoo
weave
ronin
after
mange
acorn
riemannian
corinthian
ate
conger
accentuate
each
parochial
hill
been
chipotle
make
recipient
29
minus
funakoshi
chancell
antidote
pheasant
octavo
malic
burh
ratification
glycerine
ptosis
gecko
sustain
kittle
sternum
tyrosine
passionate
slice
##ou
ter
hudson
bury
oviduct
chalco##
##sect
cyber##
conjunctiva
tango
olmec
und
equal
sinc
recount
gore
hemp
zodiac
yea
catlin
obliv
buller
revere
chitin
biscuit
publication
orientalism
rapprochement
lore
sens
198
ghastly
amer
darnay
transverse
arachno##
historian
mortar
ilio##
lithium
hawai
kampong
suction
incision
censure
202
verbalize
mason
victim
plug
yaya
gnaw
##lin
glaze
suture
heterogeneous
effusive
lesson
alfalfa
sixt
exceed
lite
yttrium
palo
spatter
railtrack
adri
puma
cruc
+
pteranodon
argentine
clay
apologetic
beholden
harass
howie
camcorder
hello
kessler
armament
techno
suk
pupate
cis##
jong
cartel
cume
penelope
calm
jackob
coup
embryo
hematoma
##ansen
##obe
gulag
glass
richard
##andel
riparian
sauna
began
errant
sie
thirst
carpin
promo
collet
histamine
ramshackle
art
achieve
comprehensible
wap
congener
bodyline
fluff
noel
##enture
impala
vera
shimmer
medic
ar
cubit
bascule
justice
chuff
testimonial
argue
acetyl
prefer
publique
##tomy
##dens
assistant
lineal
centurion
athenaeum
pseudo##
komodo
allemande
liber
turtle
veneer
compete
whatsername
sympatry
proc
morpholino
syllabic
pari
##sy
##ino
sonar
parthen##
##ways
capacitor
artiste
pry
pyjama
slope
bold
hypnosis
mediaeval
federative
leer
intolerant
hieroglyphic
pessimist
seme
fantasize
intricate
pelt
anti
boogaloo
elix
intercalation
##ception
##cracy
sovereign
awaken
antagonism
pontificate
cultivate
welsh
##fet
hail
grotto
mane
intell
zafira
##castle
impo
small
##adel
alyr
protest
theses
compression
empty
elk
##ace
flourish
wor
brougham
allegro
colic
sterilise
thrombo##
nihilist
gehenna
crock
fitch
rook
archeopteryx
proponent
##lic
yaksha
##enburg
swizz
agitator
comb
taunt
gong
choir
diversion
klarn
inspection
sheep
just
##urt
dead
wong
laborious
precursor
ere
bayan
##asty
bruno
australian
gular
nativity
ple
vitello##
patent
category
makeshift
##oor
bosh
theoretic
mercy
argosy
gob
psammo##
repentance
archipelago
unity
wake
bouquet
combe
array
hecto##
holo
mono
batten
stale
kind
cougar
anaerobic
ram
craig
nebulosity
mayan
geodesic
shame
##ov
##po
##amb
cork
chytrid
intone
deadpool
capacitive
rectory
corps
expertise
serot
serif
##aemia
consume
tuna
propound
carcinoma
symmetric
pollination
velo
*
laurent
bry
paco
sequoia
creatine
amethyst
purgatory
stench
##work
lowry
lacrosse
gush
inconspicuous
irrelevance
irreligious
fork
britain
anguish
##u
darin
##ling
bellicose
louvre
cardinalate
palmer
gent
dairy
aposematism
glorify
irido##
drunk
caesar
male
refusal
##allion
cohabit
ras
##ion
tenuis
sucrose
modest
transient
jardin
dall
necessitate
exude
##aux
bongo
dormancy
bain
millimetre
keto##
adjuvant
ankh
##ware
phoronid
camp
##erra
reformation
cilia
solenoid
aval
booze
true
alfonso
slant
crawl
eon
glucuronide
lat
##oline
exaltation
answ
hint
schistosome
quasar
factory
pin
sod
figment
irritate
cava
informality
##core
gata
antagonise
vol
scavenge
croissant
lister
pott
amber
distraction
roundup
chrissy
sporangium
wham
flinch
##sa
pulverise
discourse
caligulas
petition
vibrant
distress
invalidate
touraine
aband
chastise
reverberate
shirk
versed
await
lubricant
subservience
tantamount
which
explain
interest
coin
object
##iner
tuan
tantrum
trio
##aro
##ped
syn
truce
prentice
potentiation
interpreter
ever
positive
##urdy
puppy
somersault
serotinous
ectoproct
pantheon
peace
seldom
moline
comparison
your
##itt
ulterior
chattel
homologous
opus
widget
dsrna
analysis
##arte
salon
violet
sou
illuminate
dramedy
##burger
estradiol
medina
pheromone
flavone
gene
narthex
tule
weald
philippa
scinth
saw
slag
stress
chuckie
histone
disobedience
aneurysm
lit
betel
eis
wash
bock
dry
binky
cocker
embattle
balcony
hydroxy##
cockney
marathon
herpes
screen
glycol
pay
loot
analyst
wright
turf
##ois
indulgence
hygiene
drink
halo
?
sag
##land
marat
gor
hellemann
vene
dilute
schema
boris
cold
##uise
ciel
content
convince
sedan
saint
gorgeous
poliomyelitis
tractable
aspartic
marsh
autism
gall
saiga
##ump
##ics
stature
sanjak
byway
escudo
arthritic
chivvy
mortal
##anth
pew
sarcoma
drapery
arrog
##lan
nave
stave
fulminant
##ite
dogger
denture
cran
adjutant
catabolism
maf
strip
##cous
##orge
apolo
agrippina
kath
carbonate
store
insurance
orig
parapsychology
welch
honourable
atoll
vestry
rationale
disjunction
turlough
abort
tangent
cavalier
rucksack
extradition
phono
spino##
documentation
ara
inhabitant
ominous
flitch
penetrate
leary
stuffy
razzaq
vehement
##sack
kangaroo
quarrel
antagonize
distance
theory
peddle
transaminase
levan
interrog
helldiver
##uct
om
diphtheria
barquentine
##phant
conformable
##elia
java
kinesi##
stable
jr
takin
##ph
spigot
b
scree
opuntia
recoup
furor
rev
yep
costume
##fold
swung
harbour
vassalage
blake
oc
jog
kapo
boar
conclude
aggrandize
also
pulp
wray
balthazar
swig
graze
much
vertebrate
plover
erg##
flair
account
henry
penchant
skim
splash
sanjee
baguio
melanogaster
macgyver
chrysanthemum
dickie
exotic
cloven
apply
gynecology
ornithischia
lionel
terry
abatis
##pe
stretch
phobia
##iment
entrepreneur
tir
cad
axe
catholic
predominant
penthouse
declaim
arson
banner
debit
academia
lemuriform
september
endemism
bout
horror
lanthanum
carex
minnesota
arsenic
propitiate
flack
bourgeois
cruise
tyre
counter##
mal
cheep
regenerate
skew
capillary
##ord
postscript
hurley
secretariat
focus
nan
schist
grandeur
pain
antic
tortuous
dilate
always
shrunk
gaddi
sonority
lecher
supra##
lo
##at
subsidy
gyno##
contain
haw
##ifer
wharf
##roter
syncopate
##oll
squamous
plural
osteological
lost
boulder
nourish
ankylosaur
cleeve
ankylosaurid
halt
saros
burp
chana
clink
pygo##
envelope
roo
funereal
kibbutz
agitprop
sorb
pres
holly
defendant
caulk
existent
mustang
fresco
protoc
cachet
temperate
iris
offender
prologue
shire
reductive
chert
jesse
mercantile
commun
bombast
zan
##vin
##chette
bonnet
suburban
excuse
conduit
finalization
skimp
strombus
zine
##ower
pandemonium
official
trivial
skar
proced
cadiz
##gs
initiative
amphora
quadrupole
satin
gross
spa
strong
##den
##ension
relig
veget
##ern
ath
bamboo
##ial
accessible
assize
dr
pivot
visible
division
affine
ingenious
sclera
indolence
silence
##etta
batt
opia
egregious
catawba
minuscule
famous
##vorous
chargier
lye
explosive
flanahan
altercation
fast
meltdown
semio##
simplify
turk
cinematic
saboteur
##bid
rrna
trunnion
guitar
heriot
phenocryst
bobsled
ole
captive
hyru
determinist
pharyngitis
propositional
dike
##cus
sortie
post##
adipo##
into
150
z
elusive
ord
galvano##
fy
##ild
murray
decor
hu
##vet
ink
agora
keto
belladonna
quality
fellow
##ota
xero##
imitate
negara
zinc
transfix
hol
exacerbate
feto##
soluble
dimarico
harold
##ogue
klepto##
optimal
port
hide
vise
bedsit
ener
bravado
viscera
introd
indignation
fidge
motte
orthonormal
agree
coff
sex
brock
smuggle
van
)
porn
epicurean
s##
nonchalant
allosaur
pan##
dwelt
oil
colon
calibre
deere
clift
rockabilly
oxford
eland
obligate
pulsation
malc
helicopter
##ant
tension
exha
the
gluco##
coppa
casualty
dun
magnific
pounce
infliction
frenetic
irony
ma
politicise
credulity
fetch
usual
pend
squad
bardo
dade
lowe
neuraminidase
oka
dign
tetra##
infringe
explode
hear
##scopy
campaign
eth##
politico
##platin
concourse
female
antithetic
deli
indicate
joshs
##fric
emma
utero##
##aign
kennet
landgrave
immed
incident
luciferin
oswald
transplantation
##ale
libation
cnidaria
typo
nitrile
aerobic
humiliation
calligraphic
##read
tapioca
literature
indoor
homologue
dan
molasses
techotl
##seigneur
pizza
revenue
judicious
rush
southeast
jerkin
veh
convivial
polis
reclaim
rolex
sort
pederast
orthoptera
##ural
hora
actin##
felon
khyber
addictive
groat
azalea
pretension
conspirator
buccaneer
satanist
stock
pepper
methotrexate
sar
zaleb
adagio
commandeer
bronco
dale
coagulant
diadem
sulfonate
clump
conclusion
##odont
morel
iso##
gazebo
macaroni
mesmerize
sight
cinnamon
existentialism
piezo##
prostrate
inductance
butyro##
goby
suggestion
fang
exec
quest
ry
##mund
humik
ascomycete
signific
putative
fright
metallo##
dice
jeopardise
toucan
implore
mushroom
regulus
sleazy
munshi
symbolist
##erd
##antial
scuff
ultimatum
dishevel
pencil
##lov
phosphonic
turbo
asphyxia
jiffy
priss
increase
sensation
info
pillow
orifice
##aum
mediastinum
bilaterian
folio
samurai
capuchin
dao
aluminic
ardent
catenary
##over
2012
calcite
genocide
##ous
##air
crow
cotton
tang
comedy
rusalka
wainwright
family
rogue
cord
partridge
valet
sclerotium
kriegman
bora
meeka
naitty
paul
##own
knob
spectrum
lateen
block
haze
neural
patio
intramuscular
infectious
creosote
grue
butt
##cidal
stri
##ona
stryker
boom
tribute
tenacity
armour
bary##
atropa
historio##
anthropology
requite
pyramid
vegetarian
cyberspace
ostensible
usurpation
delegate
kano
denouement
get
shove
threaten
tye
##mur
cognizant
recurrent
curate
transfuse
ferrite
dose
lesbian
homo
torso
respons
hospice
biography
prop
libretto
galvanize
eag
erythro##
bolgob
anthropomorphize
jetson
bupropion
amelo##
escheat
figure
eden
perpetuity
champaign
grice
shirt
##ante
erik
livre
solend
phenethylamine
propagate
periphyton
shelf
renowned
optimize
attention
trompe
apprehension
dandy
scrunch
montage
lineup
harbinger
cowen
invent
revelation
recession
ancona
appropri
contra##
##ered
identification
transit
condo
stomata
odontocete
oklah
commute
sojourn
hasnt
##ais
commendation
zinz
birk
abalone
pad
##upt
culminate
aro
shrunken
waffle
colourful
interwoven
rideau
50
usury
kr
quad##
bright
##iate
california
##mose
huh
tinnitus
ballistics
ordin
honorific
brix
arbitrary
sphero##
ptarmigan
##cas
quarreling
##worth
okey
record
paparazzi
diminish
viridian
ascites
emigrate
horiz
spoof
communion
bash
coincident
boop
##ine
##vre
pursuit
opportune
irid
clit
zimbabwe
fatal
hierarchical
carte
incorrect
indica
cleopatra
lilith
numismatist
goggle
##ilege
ricochet
kain
appar
##ya
vivian
regurgitate
yatra
amici
husan
dilemma
chopstick
devolution
bestiary
diapause
bama
bis
jennifer
polytechnic
curio
muddle
yuga
brent
##00
advection
emulsify
investiture
snicker
cy
sheng
compatible
puzzle
##ero
octo
parlor
scrutiny
innuendo
##ury
absorb
ambition
jhovahkan
ornithological
glaciation
##etery
warrant
vapor
insular
beaucoup
##roll
chip
cigar
neutro##
buffon
fluidity
courageous
volunt
maddie
ailanthus
reticule
mambo
sleuth
destitute
caracol
oint
marguerite
rousse
kamal
onerous
frankfurt
ree
aaron
back
thyro##
rabat
except
longevity
complicate
expletive
phlegm
ment
##ors
pract
maze
ala
aorto##
fritillaria
allah
erosion
restaurant
alliterate
persuasive
luncheon
##laid
grapheme
ennial
talonid
apex
miraculous
apartheid
ship
third
dahlia
tapir
umm
garlic
festivity
jour
spokesman
dys##
ditt
client
taelrok
exultant
inculcate
respond
laxative
cav
gen
tile
chorion
##igate
##philic
faubourg
strain
muleteer
iron
cheta
ace
llano
titillation
tengu
equid
crepuscular
neutrino
operable
distaff
demoralise
mitre
galla
brigade
##od
##ill
chemic
enormity
##ght
##rif
remainder
numeracy
heron
lamba
artif
comment
##ato
pasta
cultivable
rath
procreate
recapitulation
mk
iridine
ramus
odyssey
jaunt
##rum
recrimination
implosion
goo
frieze
od
childbirth
romaine
rapier
ration
garret
ker##
behind
deceit
ping
convalescent
sanction
uremia
senegal
atl
philippe
cheng
ferrous
vinegar
flon
swell
fabric
gule
##ward
vicine
avoidance
pretend
oppose
submission
flemish
##ma
##ounty
daimyo
astringent
pregn
typhus
ream
animatic
dowse
gurdwara
anchovy
broth
theyve
hallucinogen
vila
transmit
carrel
sturgeon
coercion
plop
##bidden
feminize
nato
ounce
quarto
bann
clamber
sto
##aff
idolater
pajama
casa
navigate
gone
cortico##
##cephalous
equaliser
juggernaut
heretic
circumscription
viable
pia
depreciation
video##
manifest
nang
falk
xiao
thine
##ps
russ
panic
aum
hashish
cymbal
stegosaurus
distemper
geisha
parliament
for##
conviction
hawk
tester
ore
strychnine
cimmer
intrigue
durham
shun
siddha
superintendent
expenditure
reparation
pilgrimage
osteoporosis
morganatic
tres
jarl
acacia
diesel
confuse
dis
titrate
brey
pylorus
salve
kp
##blast
autopsy
weird
despoil
gorgon
immense
tort
bump
poplar
particularity
manton
trait
component
jaffa
imm
cultivar
confine
racquet
hockey
hyaline
histidine
mid##
grenade
heyday
pillage
avaricious
ternate
croc
tawny
collins
##uts
##ltli
carling
lustre
numerology
epaulette
cringe
foment
rode
savanna
dyne
##cri
saturday
scorpion
mister
froelich
tendril
arbitration
meso##
avoid
tael
shaheen
caf
##icity
orne
derision
sheriff
##ition
trigonid
romance
##urb
kant
to##
flippant
missouri
pluri##
obrian
participate
ornitho##
banana
mal##
pease
##me
food
##elve
sphagnum
##athan
turbulence
lanka
pip
hog
sigil
describe
eligible
metatarsus
malfeasance
marital
magma
hal
institution
cyber
rheumatism
starling
soot
decrease
crept
how
interim
reprisal
sauce
jp
octahedron
chancery
gest
checkmate
navy
frig
flexion
african
larp
consecration
harpy
arteriole
touchback
ament
jasmine
bead
aguayo
lepidopteran
navi
josephine
impervious
signet
##arrior
##aine
potable
orthogonal
displ
mechanism
chengguan
gul
referendum
benthos
muggle
gravi##
derby
acanthocyte
bean
foregone
marcus
analgesia
sequitur
ibex
##ella
adherent
satrapy
romant
dowd
pliant
cry
##ause
banjo
phonetic
vail
poa
meitner
slew
johnny
cast
jess
tug
barbiturate
amnesia
##aceous
stage
plot
chart
##ga
jeanine
chris
mace
gero##
tommys
strategic
valiant
trapeze
compet
##idad
kim
jetty
blah
stormtrooper
tarvik
squash
disorientate
phyletic
##ique
uncial
##version
myco##
evacuee
trans##
bilge
traversal
stork
irk
yar
turban
##hammed
brow
##ic
##ron
methoxy
acer
pursuant
##ilar
drill
distribute
##chore
trick
af
##oman
annex
shingle
americano
nuss
molly
amanita
lorn
voivode
##ths
marquis
sean
thence
phosphorus
mete
pity
peg
lilys
ifrit
##move
##pet
sonorous
tempt
##ocr
crake
skua
suburbia
ibuprofen
##cell
whitney
non
hemlock
ligate
purge
stephens
crosscountry
anorexia
salmonella
scoto##
##ch
vector
kanji
flow
dhow
gluteus
quaternary
kabuto
tyrannosaurid
ambon
##cl
harness
manes
emo
bloop
dingo
waugh
shrew
un##
dwayne
polish
furthest
denier
hype
##rant
doll
merit
adverse
align
steel
hou
##ortion
canticle
gove
invisibility
##awn
muscular
rancho
zinco##
mold
zymo##
designate
surfactant
could
##ol
febr
summarise
carrack
inordinate
benzene
##ope
krait
##ose
##etch
differentiable
skeet
simplicity
excrement
deft
tantra
miron
petiole
bin##
surmise
imine
saif
cumin
charge
gerudo
pomposity
yonkoma
##eryl
fortification
pinna
sectarius
ameba
pontifical
cognitive
endo##
majiid
fidelity
league
kpun
gnat
otaku
pauci##
chee
prud
phosphate
stiff
prosperous
impl
syrup
upper
semite
bidi
gruel
plano##
##ator
oxygen
newton
procellariid
krie
cia
korea
directory
fox
plainclothes
major
impressive
fail
skeleton
ops
qia
ve
median
pulsar
##llann
insect
psalter
##hardt
leaky
fulla
hamiltonian
##vee
encrust
amnesty
merriam
warden
wilt
mind
bird
distal
ile
evening
##graphy
callous
herbivore
sirna
corona
medieval
romans
instar
rhebok
##ny
kung
liz
reap
televise
residence
mab
pos
ahimsa
dynamo##
chamber
anti##
inventor
barium
improper
kati
tyranny
dupe
mana
thalia
##ush
ton
coplaw
ledger
melodramatic
anton
divert
##ax
saturn
cornea
allergy
brain
tobie
talent
pictograph
ordinate
odeon
scrut
##itute
ghani
sf
luchador
deceive
supra
nape
sarah
jacint
equate
rikishi
hepato##
chondro##
deg
recourse
##ouver
bio##
dromaeosaur
throng
chi
realise
jerry
boyle
singular
virus
spiracle
naivete
forester
rome
operetta
##urry
chipper
exert
grenadine
claymation
mammary
disruption
hoshi
offend
synaptic
gw
##kok
real
supervise
omission
sudoku
lobe
illusory
figo
danton
obtrusive
rate
zoey
howard
##static
benz##
especial
delusion
ano##
py
beriberi
berm
##arden
##bys
##ipal
peril
falconer
quod
gallop
infirm
##thar
curricular
urethra
steven
vestille
napole
conspire
arabs
decisive
hump
vivacity
aikido
penel
vapour
notation
quadrangle
judiciary
##cest
protector
jas
gorm
foreseen
hegemony
cadre
avel
ratchet
rude
credit
trump
dismutase
cataphract
automate
rustication
##umble
biryani
navigator
lupin
dialect
##issary
bolling
balata
demon
advocacy
polo
disaffection
colpo##
brixby
wine
##ancy
tulip
chlorofluorocarbon
claire
dish
##ort
##ife
ward
ribb
assertion
honour
chemokine
transversal
omicron
buffoon
gillian
intensive
liaison
serf
genteel
congress
stoa
tenacious
wiggle
testify
intellect
mayonnaise
padilla
mask
mystic
comparable
kandy
pregnant
brawl
polio
land
chasseur
karma
off
kristall
fascist
aliment
sworn
##kinson
pyramidal
krist
vase
##icament
inhospitable
mc
incarcerate
palatine
altimeter
maquette
capo
libertine
ballistic
imitator
mrs
tedious
dependent
rosalia
decal
monument
federalism
curse
##ificate
shoo
late
variola
schlumbergera
45
cajole
morsel
whore
wobble
notification
alcove
emerald
banshee
tem
blore
apr
meticulous
##iere
idyll
youre
##physis
32
petar
perfuse
sneeze
intersperse
bolster
##ople
out
kathy
etoile
mortify
speculum
rafe
=
exp
listen
meacham
choreography
downplay
exchequer
puisne
lothario
hat
lacquer
spring
gramophone
engross
##ang
##icient
imag
hol##
auld
solomon
benefice
groove
spurn
##ulation
lithia
peptic
kerrang
wille
##geny
tithe
pariah
nickel
micro##
allen
chop
##kat
hospitality
bade
penis
pneumato##
armoury
kuna
##jam
nomination
guise
lupine
held
000
sofa
##ir
bldg
fibril
ker
slade
rhomb
barr
shaw
alejo
suffice
pottinger
ordinal
drudge
abelian
##cephaly
edify
breathe
anesthetist
fashion
integrity
tote
meta
medio##
henrik
sharianna
piss
shrub
spouse
ort
psychic
hospitable
augmentation
epilogue
chibi
acquiesce
biochemist
##isl
pterygoid
epis
edison
rinpoche
mode
penal
ignoble
nutritive
capitulate
intonation
tomcat
amalgamation
funicular
reproach
silent
amoeba
##hire
durian
perturbation
embrasure
##rete
att
info##
afflict
embryological
lasso
botkin
chlor##
popcorn
##ple
ordre
breyden
isabella
harim
reservation
olympic
soothe
coochie
kanaka
beside
psychotic
kelpie
type
##ap
tic
hire
divi
become
exhilarate
zeta
mafic
livelihood
##ula
supple
polarisation
criollo
eutectic
##che
theorem
smarm
normal
dolour
pierrot
gremlin
grant
oaf
nat
daemon
apostrophe
behav
buoy
assailant
merlot
##speed
co##
exigency
pell
disgorge
##uc
tarsus
cine##
heliport
nano##
maleek
##nest
segregate
allergen
lotion
abram
ephor
sarcophagus
freelan
kolo
ducal
chirk
makeover
after##
preempt
sobriquet
stroud
urethro##
consultative
fougasse
quantize
esp
montero
##se
instigator
blob
arisen
flare
defend
pray
peyton
mirna
mito##
splay
trim
tuck
failure
westward
meader
mutter
exhalation
furnace
nuchal
##iot
avalanche
eh
##mond
buckingham
advent
braz
celebrant
prodigy
launder
termite
whim
axiomatic
militant
##ical
eugenia
conveyance
gary
##phage
nitroso
##gasm
flint
linc
##dyne
filament
council
horticulturalist
11
salivation
<
dare
rutile
##cho
transaction
taoiseach
arjuna
skerry
hod
decorous
messiah
presence
##enn
relinquish
wife
##pexy
swipe
mak
extortion
politique
jake
dividend
howl
creed
ollie
bulrush
scooby
list
bay
jodi
substitution
dissipate
morbid
scarp
contributory
grigor
polymath
na
ardor
deca##
idio##
symbol
brannigan
gada
serge
crunch
seat
secret
spend
bondage
##ledge
overwrought
haunch
determinate
sam
brad
##rik
am
inter##
bessa
tantalum
##rane
##ham
incomprehensible
shieling
instru
tamarin
franco
argent
curran
cham
bard
personage
kylie
gala
yak
aw
trow
feint
alloy
.
vw
emily
tammar
penumbra
certainty
semantic
route
##abra
farrow
tinker
##zo
psychro##
causeway
sentry
calculate
corpuscle
##ergic
amand
pisces
becquerel
ovo##
##gram
ketide
blouse
anonymous
ouse
respite
heap
was
marissa
trian
##izen
sil
munition
treble
cotta
##istic
kempt
para##
apologia
scouting
##abad
stand
rim
ethan
wayne
gaum
##cratic
ignorance
emphysema
bow
##ell
##vere
parthy
folk
loiter
arrhythmia
bound
##uary
dodge
goin
incrimination
second
saxon
loofah
proline
nepal
montgomery
kin
reformatory
sprink
diplomacy
dispense
wrench
mot
district
wrasse
tuesday
##pc
destructive
stetho##
ms
fun
nap
deplete
methodical
adoption
macro##
su
indust
paten
chipmunk
astrid
antimony
already
monotony
humoral
##ton
tritium
bam
coombe
shine
carty
tobin
lethargic
impregnate
bru
approve
johannes
glas
albertosaurine
deacon
propel
rhapsody
connor
squat
conceptualise
proclaim
million
mesh
shank
undulate
irate
noddle
titanosaurian
specular
perjury
recusant
keg
corpor
possess
regolith
batter
lith##
tak
##teen
separate
confidante
strontium
stole
staithe
disprove
synchronization
ethno##
tar
##cu
lire
alleviate
bel
custard
dynast
epicycle
chr
acclimate
bal
joke
##inch
deb
rother
ora
cuba
yarn
tartar
arterio##
image
lincol
installment
peavy
ossicle
##acy
pave
##asp
##ig
hemipteran
##tan
limpet
dough
kojas
rakk
spence
regional
concession
oliver
##rom
accord
reel
tielson
promise
virt
domicile
pamphlet
reid
suplex
categorical
cleanup
phenytoin
##dic
industrialize
wherry
cyanobacteria
surplus
cannibal
minion
hadron
dram
ira
autogiro
service
adjective
globule
boyar
beyond
desert
throffer
calcium
barren
rec
obliteration
absinthe
sacramental
beret
litster
cris
fount
jacqu
attic
octa##
ovate
putrid
auditor
zoot
discipline
impugn
gallon
mite
ministerial
criminality
tumulus
bladder
origami
pm
transact
lorimer
palindrome
pict
sovant
blackmail
limber
bicker
prosody
metabolism
extol
trinitarian
baritone
iso
chloral
marc
gnosticism
glycogen
abate
knot
zyme
jig
carnation
hecate
cheetah
archaeo##
dante
entice
difficulty
grow
lun
pond
gharial
revolt
ambitious
torana
centrist
##hhhh
roundtrip
##zas
respiration
practic
brenner
sadhana
stash
hoard
frack
chordate
refractory
kurma
mustelid
parimutuel
intercession
tap
##ciating
##inz
wise
sacrosanct
##tastic
madel
caudo##
marie
loph
##umb
percent
trickle
lzaro
cram
norovirus
semi##
booby
brass
recombinant
fle
mud
coquenard
colter
ugh
madame
drum
cyan
rehearse
logos
cage
pupa
carbohydrate
puffadder
depletion
sapro##
##phyllous
wop
grievous
candid
shenanigan
vocabulary
arroyo
oculus
##ont
assault
abrogate
satiate
intoxicate
cluster
gentlewomen
brunette
impotence
orb
cognizance
desultory
ladder
hile
##mine
vice##
incomparable
commutative
reverential
timbal
among
kashrut
loose
handle
hist
anchor
lindon
stal
admit
necrotize
favorable
disguise
##rew
enchantment
dramatization
mensch
full
##eve
distribution
vaudeville
fag
frankenstein
cumber
##ront
##vest
run
fil
gha
crombies
wald
bogart
circlet
itzli
repercussion
takia
distortion
excito##
bobsleigh
facsimile
fandango
##onent
deign
##words
tread
triad
essential
recurrence
gascon
sublime
fletch
hydroxyapatite
ge
dagmar
garage
magell
bucentaur
swelt
penitent
fanfare
haste
cinema
benton
grandiose
nectary
ivy
hedonic
contaminate
reticle
bonanza
jungle
explore
paksha
conclave
stiletto
urticaria
generator
acknowledge
expulsion
mage
slim
slop
peony
luxurious
vocation
gisele
clunky
aniline
heinous
boy
trash
insult
grift
flea
mimic
##ange
sang
crustacea
leniency
despite
cobb
presume
femto##
gabrielle
avow
hornswoggle
pharmaco##
consequent
precarious
genial
ventilate
flugelhorn
genoa
binoculars
preach
hip
##sus
sank
protection
oligochaete
slalom
notice
obscene
lyre
indifferent
capsule
floe
infanta
hyperbola
tr
milk
hier
license
metabolize
florist
cocoon
acme
sent
litho
rudiment
diorama
mortification
progressive
salina
##rael
attendant
parnell
acktur
##ette
barric
beneficent
cloaca
##ieg
polemic
constipation
homestretch
enamel
beverly
offensive
ordain
##kan
coqu
depose
song
oblique
sculpture
tepid
vow
magi
cardigan
solvation
scurry
never
slump
cybernetics
dwelling
linn
arthro##
nay
chica
##oooo
pluck
burrow
inchoate
mutinous
alum
filtration
etc
eponymous
operant
heft
humanist
defense
bladefoot
disk
platonic
trade
redact
nominal
pike
salmon
him
deplorable
bruce
pillau
stunt
glyn
meridional
salvo
bek
equilibrium
drosophila
patrician
poodle
rodeo
distinctive
conscious
nom
circa
acetic
spiro##
innocuous
waile
turret
kilometer
hallelujah
mitra
vegetative
viviparous
merle
##aunt
jud
coumarou
delirium
##phoresis
piquet
apache
maternal
uterine
admittance
album
rhyme
octet
groom
aby
palaeontology
anatomic
okapi
gener
live
ascetic
sparhawk
luge
trudy
skiff
choline
amster
hooley
##bs
tesla
predatory
kermode
primal
moraine
swarm
porch
altern
##ms
panru
donut
anode
consonant
rudge
manifesto
##une
adeno##
##urd
##ables
yen
emulsion
morning
bolete
dolce
chelicerate
genealogical
rile
summ
##dys
compartment
cassey
booty
splendor
alumnus
adsorbent
sile
lunatic
sufficiency
burgundy
thorpe
bonito
trine
fatuous
marvel
pugilist
##vious
vesicula
peritoneum
confiscate
##cer
nucleo##
nigra
almanack
soss
scatter
hattah
lombard
asso
tribunal
bogue
##andry
ersatz
pedigree
retino##
lawn
beam
initial
thurs
however
mullen
bang
##oc
bituminous
##sel
mirai
dormer
instruct
vanilla
hijab
manitou
corvette
##chment
coley
slid
mandal
sifaka
gluck
haram
sergio
##dam
occupation
lad
clas
lec
impersonal
dissident
conversant
mucosa
gover
easel
##stasis
##raw
##moil
volcano
mute
guanidine
mog
##sophy
delectable
charterhouse
papacy
hon
bazooka
terminal
littoral
lyra
toom
ophio##
anathema
strix
dichotomy
isolate
informatic
lego
coventry
scandal
salivate
##ieux
meth##
animosity
allozyme
refectory
cubist
discussion
autumn
obed
symbolic
bubble
way
foundation
commandery
darwinism
inquisitor
terai
##nar
##ala
jacinto
puck
gap
rau
growl
retaliate
toronto
jody
##oecious
latino
acetaldehyde
physio##
bless
marinate
bethany
slatter
ec
acquire
permeate
sublimate
cohen
23
hummus
diocesan
limerick
acryl
hmm
civil
bethel
medication
phrase
throb
##itter
##ylar
diagram
alf
circulatory
##tery
hanky
implacable
##ina
annexation
##acious
##stein
shep
omnivore
safari
shadow
bon
pseudo
pachinko
pixie
qualify
interject
horizontal
residency
rota
analogic
contra
inhabited
baghdad
sho
proximity
vacancy
reticulum
bing
interchange
pili
construe
russel
trail
gnu
exemplar
te
fantasia
pacific
malkin
teak
quadr##
rhizo##
vacillate
cowie
##view
theater
son
theyll
##rah
hart
porous
scissor
zany
axel
##omet
vestige
sabrina
titillate
programmatic
##ampus
talbot
angell
##inum
revolution
stu
celery
tack
lecture
monday
anthologize
doge
croft
genet
cycad
snip
mulatto
cosy
exist
heritor
##lo
see
caffeine
hakeem
heller
hippo##
negot
telly
##pid
bo
gino
carotid
phosphorescent
scepticism
blowout
divorcee
camelot
bromeliad
extravaganza
foraminifera
settle
graffiti
cedar
contiguous
cricket
emporium
schismatic
##icip
##shi
acolyte
dodo
treachery
morse
claud
hot
niece
customary
fugue
sale
mitigation
seize
##ounce
chetnik
tableau
zoonotic
ghaavn
school
##iam
rend
lbw
muscarine
##uls
latakia
surgical
papaya
ingenuous
juncture
hex
werent
contessa
rebbe
birt
cleft
##can
mandolin
gonio##
##za
path
roble
nile
axo##
traprock
ft
los
allison
tag
statin
app
sor
zabrons
barry
malware
ideographic
parse
philanthropy
krieger
##es
burn
zebra
gourmet
geographic
biggin
xebec
compost
tahsil
chasten
grebe
imply
greywacke
conserve
comet
priv
ummah
dastard
shuck
plasma
eviction
zeitgeist
moderato
stoic
reef
ant
garrison
sleigh
bahia
saturate
gemma
pirai
ascent
spicule
jessie
jenny
helminth
spawn
yum
##latry
katakana
hough
##dge
##med
discotheque
univer
##oulder
##raid
sole
next
##ielle
disinfect
cramp
micro
transmute
receive
erin
coolie
shyster
obsc
grammy
uptown
fre
okra
oly
quite
creak
venereal
reichmann
murdock
benediction
congeal
han
hydride
pat
romano
moccasin
oat
cinnabar
post
even
grapho##
wye
##phyte
paternity
cosmopolite
currant
gratification
sero##
squ
arista
##cate
sarcasm
condyle
##str
chomp
fire
with
creatinine
portra
aspirin
1st
gape
cosmetic
cervical
poro##
monstrous
##ote
david
voodoo
tundra
herbaceous
mast
tanager
anodyne
tyler
genesis
excrete
meistersinger
cud
bend
feud
legitimate
ball
merry
imitation
tepal
tung
pentadeca##
##itious
angela
cubitus
ism
rocket
kerchief
excel
hiatus
ratio
ooser
calculable
chicane
maraca
before
monogenean
brake
re
favour
tardy
optimist
barber
medial
spore
tan
lamprey
odin
papilla
religious
instinct
dune
select
yo
##onso
profession
impr
loge
felicia
whig
phony
unanimous
spencer
sophisticate
bawd
##iour
hutch
resorption
injunction
gravel
##losure
barbette
replication
lincoln
chock
successor
aceto##
drosera
erase
maxima
pav
outdo
hooray
tenant
##gie
stevedore
prevaricate
museum
aedile
detractor
phraseology
##ory
respire
glasg
jejunal
misled
##ops
dol
gasoline
detritivore
##type
lunacy
revenant
pinnacle
malevolent
parrilla
telluric
sky
thomas
##cup
gib
concede
leuko##
perplex
italic
##ript
variant
jann
##cuit
journey
arth
hori
malaria
lavender
banke
ruble
dalmatia
choreographer
coquette
sepia
dacite
dowdy
prairie
mander
occup
redoubt
gradock
coke
omega
ineligible
brou
concertina
escalate
cathedral
cerebrate
paralytic
mungo
wesson
ascend
donor
daff
child
gleba
topic
progression
space
watt
ambidextrous
wither
wield
psoriasis
##enne
parkinson
##nomics
pronounce
judoka
artifice
probable
conc
trou
grove
##osity
swank
ident
##tu
bombastic
circumvent
mosaic
cassation
hum
reg
tangle
novi
taluk
formula
motet
dojo
placekicker
invasion
sion
egotist
baronial
leaven
halcyon
neanderthal
excavation
oligo##
vanadium
transfer
sail
dream
resource
alabama
envious
name
clip
contrail
spirochete
dutchess
brag
adhere
coate
nitrous
intelligentsia
thrust
messianic
laugh
snipe
grrrl
lactic
bounce
bawl
zeus
reeler
min
bract
diegetic
enclave
infomercial
magpie
ultima
tectum
concoct
trundle
delicacy
prig
spokesperson
bering
##r
tin
##though
sport
picket
may
dosimetry
moby
sprint
pertain
firman
ive
rift
flap
industrious
partisan
saltation
pong
catalog
luke
lever
rafferty
eff
limno##
reticular
control
fulfillment
adjudication
viceroyalty
hasta
dactyl
cutaneous
pilot
cuirassier
articulate
incumbent
goth
cytokine
virion
cretin
transparent
polarize
level
material
kentia
botany
hymen
shake
steller
octo##
righteous
starboard
apse
slashdot
bento
##iece
tribo##
teal
##hm
ashlar
deliberative
anecdote
ovum
tau
peripatetic
luminescence
opp
consul
##we
##eter
ani
sundae
cockle
abrah
outside
sap
historic
exposition
raz
sich
dissolution
##ity
anonymize
quartz
strum
ordo
##lect
vulture
forth
cuddy
faggot
azo
parallelogram
prevalence
##icit
modern
imagine
frag
fem
##ad
niranene
fiancee
gelatinous
transitive
infallible
vesical
dung
young
hydrolytic
oblige
leptin
autistic
boggle
thylacine
provide
fury
##oon
marten
im##
duopoly
monsieur
perish
boot
diocese
karst
duma
toluene
subservient
wagon
parotid
joshua
strife
link
ching
imper
ragamuffin
parabola
splint
swab
gamergate
loach
athens
orient
decimal
secession
paint
terminology
immorality
gatsby
qualification
sphygm##
fritillary
scrawl
pinto
sharp
magazine
qualitative
osprey
symptom
stuff
hamada
##ree
michel
mi
canister
diplodocus
noto##
annihilate
francophone
emperor
valrek
parsec
funeral
protestation
vat
defer
hooke
rhenium
synecdoche
teddy
secrete
shite
smell
abolishment
##per
tangerine
druk
##ec
nana
bide
indomitable
conjure
inst
##zz
veranda
mrt
hadlik
shag
covetous
skittle
natalie
regurgitation
outdoors
moose
zayn
circumspect
yelp
worry
zac
dita
consortium
umb
strake
illinois
expert
checkout
traduce
48
pax
josh
gilt
master
australia
thamssin
yodel
pantograph
sylph
zeal
perigee
##ute
accomplish
sew
prot
morphism
viking
emission
monsignor
falcon
libration
impend
common
urine
malleability
compass
blear
##ctic
confess
clino##
malfunction
triforium
meson
hew
eros
white
whe
ineligibility
triangulate
stylus
mig
ful##
confirm
##cast
eve
phonographic
amit
ass
combust
dictum
concoction
ron
99
exasperate
cinch
re##
nathaniel
rhesus
contact
catharsis
gulden
knave
telemark
jubilate
natal
sputnik
smit
reptile
speleo##
glen
nickname
mesio##
heer
permission
##usal
alluvial
aggression
mitzvah
allot
excess
sitar
kish
kernel
henri
title
jar
slung
november
steer
tac
colin
rococo
ayn
grump
sever
monarchist
lamin
##ulsion
edict
carnitine
##em
##akar
kenne
alexs
edgar
dodeca##
mare
friction
euthanize
precept
lapu
linger
blurb
lyke
genera
host
adjacent
studbook
chautauqua
bustier
1
holloway
sponge
blanco
leaguer
tri
mike
##beck
pelvis
wh
kanga
derm##
maniple
meze
stade
brat
##clase
##tend
inbred
misk
christie
##pend
bone
hypnotic
##ene
concern
depot
pectin
tall
tesseract
adherence
pyne
meth
regulatory
##aughter
##anya
turquoise
##nies
au
domin
dutton
glucose
digi##
suck
transubstantiation
globe
gerud
monad
rhyne
sabr
fant
##pnea
##wich
##ario
crocodile
ukrain
guttural
persoonia
industry
gamut
troodontid
durance
premeditate
spectate
oni
exuberant
semadar
eid
translu
motorcade
fuffle
illustrate
anneal
physi##
rukh
pringle
ballot
##stic
topa
quay
flat
resin
syllable
teat
chalk
problematic
applaud
ritornello
fulcrum
synthesise
letter
aub
nene
ramael
dedication
tonk
lurid
revulsion
wynn
##ng
incipient
naturalize
cloth
burk
juke
monkey
scrub
copra
vine
ya
deprave
temp
elaborate
gise
utala
business
crombie
newscaster
jack
sestina
nyala
count
monastery
boon
ossify
drachm
prob
appetite
beauty
cain
35
colour
pornography
burthen
wisp
bello
paucity
manipulate
expand
escalator
famil
longus
hemoglobin
benjamin
cranium
triptych
primrose
cline
olymp
sedation
platoon
binary
ewer
##mony
##meter
speedo
sorcery
##sole
motel
glitzy
hom
levee
rabbit
antler
nisei
sonne
##ar
smark
ghostwalker
##formin
rue
multiplicate
grammarian
kineto##
supine
symphonia
##ran
cum
snake
ordination
equus
gamesmanship
volley
hygro##
crud
##vy
decipher
clinico##
eccle
thom
iniquity
hussar
fav
blink
squeak
sell
norie
pacifist
oberon
bundle
bolgobin
orphan
imagin
revive
elucidate
##naut
communicative
health
agrarian
pullout
sacrifice
sph
monot
jorge
principle
mcg
##asel
certify
servo
pasha
vulgate
chace
barrister
argumentative
vouch
phospho
bobbitt
onycho##
asmaria
deplore
monitor
whelk
boniface
dhole
squiggle
bifurcate
synod
manicure
tarantula
beverage
derringer
obdurate
substance
nous
##jas
curia
sloop
grazier
reject
coster
philologist
az
complex
specialist
marissas
chub
automaton
sarsen
abelisaurid
meld
rhetoric
equation
##eeze
nob
tablebase
patsy
roast
##ata
cannon
monophyly
